{
  "version": "1.0",
  "truncation": null,
  "padding": null,
  "added_tokens": [
    {
      "id": 0,
      "content": "<pad>",
      "single_word": false,
      "lstrip": false,
      "rstrip": false,
      "normalized": false,
      "special": true
    },
    {
      "id": 1,
      "content": "<unk>",
      "single_word": false,
      "lstrip": false,
      "rstrip": false,
      "normalized": false,
      "special": true
    }
  ],
  "normalizer": {
    "type": "Sequence",
    "normalizers": [
      {
        "type": "NFD"
      },
      {
        "type": "StripAccents"
      },
      {
        "type": "Lowercase"
      }
    ]
  },
  "pre_tokenizer": {
    "type": "Whitespace"
  },
  "post_processor": null,
  "decoder": null,
  "model": {
    "type": "BPE",
    "dropout": null,
    "unk_token": null,
    "continuing_subword_prefix": null,
    "end_of_word_suffix": null,
    "fuse_unk": false,
    "byte_fallback": false,
    "ignore_merges": false,
    "vocab": {
      "<pad>": 0,
      "<unk>": 1,
      "0": 2,
      "1": 3,
      "2": 4,
      "3": 5,
      "4": 6,
      "5": 7,
      "6": 8,
      "7": 9,
      "8": 10,
      "9": 11,
      "a": 12,
      "b": 13,
      "c": 14,
      "d": 15,
      "e": 16,
      "f": 17,
      "g": 18,
      "h": 19,
      "i": 20,
      "j": 21,
      "k": 22,
      "l": 23,
      "m": 24,
      "n": 25,
      "o": 26,
      "p": 27,
      "q": 28,
      "r": 29,
      "s": 30,
      "t": 31,
      "u": 32,
      "v": 33,
      "w": 34,
      "x": 35,
      "y": 36,
      "z": 37,
      "ª": 38,
      "º": 39,
      "æ": 40,
      "ː": 41,
      "es": 42,
      "on": 43,
      "er": 44,
      "en": 45,
      "an": 46,
      "ar": 47,
      "ci": 48,
      "os": 49,
      "ad": 50,
      "al": 51,
      "as": 52,
      "re": 53,
      "or": 54,
      "in": 55,
      "ent": 56,
      "ti": 57,
      "di": 58,
      "co": 59,
      "ca": 60,
      "cion": 61,
      "li": 62,
      "ta": 63,
      "to": 64,
      "is": 65,
      "con": 66,
      "ro": 67,
      "do": 68,
      "ra": 69,
      "ri": 70,
      "la": 71,
      "le": 72,
      "te": 73,
      "mi": 74,
      "vi": 75,
      "ado": 76,
      "un": 77,
      "de": 78,
      "res": 79,
      "tu": 80,
      "go": 81,
      "cu": 82,
      "po": 83,
      "gu": 84,
      "ente": 85,
      "id": 86,
      "ex": 87,
      "mb": 88,
      "lo": 89,
      "pu": 90,
      "ma": 91,
      "io": 92,
      "no": 93,
      "ia": 94,
      "se": 95,
      "mo": 96,
      "ch": 97,
      "ez": 98,
      "ju": 99,
      "man": 100,
      "ab": 101,
      "su": 102,
      "vo": 103,
      "lu": 104,
      "el": 105,
      "ac": 106,
      "mar": 107,
      "ran": 108,
      "mp": 109,
      "dad": 110,
      "cia": 111,
      "si": 112,
      "ter": 113,
      "bi": 114,
      "des": 115,
      "exi": 116,
      "qu": 117,
      "pro": 118,
      "car": 119,
      "tar": 120,
      "fi": 121,
      "mexi": 122,
      "na": 123,
      "ano": 124,
      "pa": 125,
      "so": 126,
      "ados": 127,
      "par": 128,
      "ru": 129,
      "ana": 130,
      "pe": 131,
      "ento": 132,
      "per": 133,
      "pi": 134,
      "dia": 135,
      "der": 136,
      "est": 137,
      "pres": 138,
      "ba": 139,
      "mas": 140,
      "cio": 141,
      "da": 142,
      "tor": 143,
      "ada": 144,
      "emb": 145,
      "ales": 146,
      "ero": 147,
      "za": 148,
      "tra": 149,
      "ion": 150,
      "ten": 151,
      "los": 152,
      "mente": 153,
      "aron": 154,
      "san": 155,
      "me": 156,
      "mexico": 157,
      "cons": 158,
      "min": 159,
      "tas": 160,
      "jos": 161,
      "mer": 162,
      "va": 163,
      "tan": 164,
      "cor": 165,
      "tal": 166,
      "esp": 167,
      "gar": 168,
      "eron": 169,
      "hu": 170,
      "ber": 171,
      "ce": 172,
      "cas": 173,
      "fe": 174,
      "for": 175,
      "iz": 176,
      "ces": 177,
      "ob": 178,
      "sur": 179,
      "mu": 180,
      "den": 181,
      "dio": 182,
      "tes": 183,
      "udad": 184,
      "arez": 185,
      "ej": 186,
      "nu": 187,
      "ciudad": 188,
      "ciones": 189,
      "gen": 190,
      "jose": 191,
      "diaz": 192,
      "ver": 193,
      "tos": 194,
      "cono": 195,
      "tro": 196,
      "juarez": 197,
      "les": 198,
      "can": 199,
      "fu": 200,
      "mili": 201,
      "cal": 202,
      "miento": 203,
      "pos": 204,
      "por": 205,
      "entes": 206,
      "du": 207,
      "real": 208,
      "ador": 209,
      "lan": 210,
      "titu": 211,
      "jo": 212,
      "gi": 213,
      "lar": 214,
      "fran": 215,
      "lla": 216,
      "cer": 217,
      "lle": 218,
      "nue": 219,
      "men": 220,
      "bier": 221,
      "presid": 222,
      "insur": 223,
      "jun": 224,
      "tr": 225,
      "mon": 226,
      "embre": 227,
      "pues": 228,
      "cos": 229,
      "pen": 230,
      "ig": 231,
      "rio": 232,
      "gobier": 233,
      "pr": 234,
      "ando": 235,
      "ala": 236,
      "cre": 237,
      "gobierno": 238,
      "capi": 239,
      "yo": 240,
      "pas": 241,
      "more": 242,
      "insurg": 243,
      "las": 244,
      "fin": 245,
      "uni": 246,
      "morelos": 247,
      "au": 248,
      "tri": 249,
      "acion": 250,
      "pri": 251,
      "zo": 252,
      "bli": 253,
      "poli": 254,
      "cho": 255,
      "ejer": 256,
      "nacion": 257,
      "guer": 258,
      "tur": 259,
      "fuer": 260,
      "aba": 261,
      "entos": 262,
      "cha": 263,
      "eb": 264,
      "ven": 265,
      "tin": 266,
      "fa": 267,
      "pre": 268,
      "fer": 269,
      "sal": 270,
      "cito": 271,
      "hi": 272,
      "esta": 273,
      "idad": 274,
      "nueva": 275,
      "encia": 276,
      "ros": 277,
      "gres": 278,
      "vir": 279,
      "orden": 280,
      "presidente": 281,
      "hid": 282,
      "us": 283,
      "ya": 284,
      "anos": 285,
      "algo": 286,
      "ista": 287,
      "imp": 288,
      "hidalgo": 289,
      "gui": 290,
      "pais": 291,
      "era": 292,
      "ble": 293,
      "gran": 294,
      "publi": 295,
      "dis": 296,
      "inter": 297,
      "istas": 298,
      "maria": 299,
      "estado": 300,
      "rey": 301,
      "politi": 302,
      "pueb": 303,
      "espana": 304,
      "ho": 305,
      "mad": 306,
      "inci": 307,
      "constitu": 308,
      "ejercito": 309,
      "ele": 310,
      "endo": 311,
      "gener": 312,
      "despues": 313,
      "ja": 314,
      "ias": 315,
      "log": 316,
      "lado": 317,
      "que": 318,
      "ban": 319,
      "porfi": 320,
      "ne": 321,
      "ag": 322,
      "ios": 323,
      "her": 324,
      "primer": 325,
      "ton": 326,
      "uel": 327,
      "cis": 328,
      "ores": 329,
      "comp": 330,
      "mexic": 331,
      "militar": 332,
      "juan": 333,
      "insurgentes": 334,
      "parti": 335,
      "parte": 336,
      "aca": 337,
      "je": 338,
      "unid": 339,
      "tado": 340,
      "ara": 341,
      "ision": 342,
      "volu": 343,
      "dos": 344,
      "mpo": 345,
      "cial": 346,
      "ccion": 347,
      "constitucion": 348,
      "greso": 349,
      "adas": 350,
      "ato": 351,
      "apo": 352,
      "mento": 353,
      "nacional": 354,
      "espano": 355,
      "liber": 356,
      "xi": 357,
      "asi": 358,
      "ins": 359,
      "general": 360,
      "gan": 361,
      "ruz": 362,
      "gon": 363,
      "emp": 364,
      "ario": 365,
      "reci": 366,
      "aban": 367,
      "revolu": 368,
      "br": 369,
      "chi": 370,
      "arti": 371,
      "tio": 372,
      "coron": 373,
      "revolucion": 374,
      "mbi": 375,
      "meri": 376,
      "van": 377,
      "estados": 378,
      "francis": 379,
      "don": 380,
      "fr": 381,
      "depen": 382,
      "cul": 383,
      "manuel": 384,
      "ga": 385,
      "ve": 386,
      "tura": 387,
      "princi": 388,
      "bre": 389,
      "plan": 390,
      "ino": 391,
      "francisco": 392,
      "cto": 393,
      "ler": 394,
      "yor": 395,
      "nomb": 396,
      "his": 397,
      "val": 398,
      "indi": 399,
      "conoci": 400,
      "zas": 401,
      "hua": 402,
      "cab": 403,
      "forma": 404,
      "ameri": 405,
      "ini": 406,
      "sion": 407,
      "nacio": 408,
      "posi": 409,
      "junta": 410,
      "llo": 411,
      "son": 412,
      "ul": 413,
      "fo": 414,
      "tados": 415,
      "almente": 416,
      "contra": 417,
      "vio": 418,
      "guerra": 419,
      "indepen": 420,
      "derro": 421,
      "ir": 422,
      "ior": 423,
      "batal": 424,
      "lacion": 425,
      "ade": 426,
      "mayor": 427,
      "qui": 428,
      "cen": 429,
      "pan": 430,
      "sa": 431,
      "anton": 432,
      "minis": 433,
      "dencia": 434,
      "homb": 435,
      "cias": 436,
      "lio": 437,
      "ida": 438,
      "ral": 439,
      "mor": 440,
      "ley": 441,
      "frances": 442,
      "cri": 443,
      "ctor": 444,
      "gra": 445,
      "antes": 446,
      "tambi": 447,
      "deci": 448,
      "tambien": 449,
      "cla": 450,
      "ay": 451,
      "be": 452,
      "com": 453,
      "abri": 454,
      "das": 455,
      "ren": 456,
      "antonio": 457,
      "ras": 458,
      "embar": 459,
      "pla": 460,
      "izo": 461,
      "puebla": 462,
      "teni": 463,
      "adores": 464,
      "ignacio": 465,
      "bio": 466,
      "clu": 467,
      "tivo": 468,
      "guel": 469,
      "ctu": 470,
      "gru": 471,
      "ico": 472,
      "movi": 473,
      "coronel": 474,
      "reg": 475,
      "estable": 476,
      "fun": 477,
      "len": 478,
      "ismo": 479,
      "miguel": 480,
      "mos": 481,
      "oa": 482,
      "pon": 483,
      "cuer": 484,
      "articu": 485,
      "ego": 486,
      "empo": 487,
      "tuvo": 488,
      "sep": 489,
      "lugar": 490,
      "tropas": 491,
      "anti": 492,
      "comen": 493,
      "mando": 494,
      "porfirio": 495,
      "unidos": 496,
      "pala": 497,
      "ante": 498,
      "poder": 499,
      "princip": 500,
      "hombres": 501,
      "arse": 502,
      "congreso": 503,
      "tiempo": 504,
      "camp": 505,
      "pes": 506,
      "mayo": 507,
      "mado": 508,
      "rig": 509,
      "bern": 510,
      "fuerzas": 511,
      "tru": 512,
      "obis": 513,
      "septi": 514,
      "mes": 515,
      "nor": 516,
      "dici": 517,
      "acer": 518,
      "capital": 519,
      "oax": 520,
      "septiembre": 521,
      "present": 522,
      "cent": 523,
      "econo": 524,
      "ha": 525,
      "dro": 526,
      "var": 527,
      "ones": 528,
      "acruz": 529,
      "veracruz": 530,
      "economi": 531,
      "bar": 532,
      "ita": 533,
      "batalla": 534,
      "bu": 535,
      "isti": 536,
      "ray": 537,
      "viembre": 538,
      "noviembre": 539,
      "politica": 540,
      "rado": 541,
      "tad": 542,
      "cacion": 543,
      "cate": 544,
      "ser": 545,
      "adi": 546,
      "pob": 547,
      "dias": 548,
      "histor": 549,
      "dipu": 550,
      "luis": 551,
      "sol": 552,
      "ben": 553,
      "organ": 554,
      "dados": 555,
      "dar": 556,
      "conse": 557,
      "sig": 558,
      "ii": 559,
      "esti": 560,
      "cur": 561,
      "santa": 562,
      "lleg": 563,
      "tras": 564,
      "oaxaca": 565,
      "tiva": 566,
      "pedro": 567,
      "madero": 568,
      "independencia": 569,
      "movimiento": 570,
      "pez": 571,
      "tla": 572,
      "realistas": 573,
      "tran": 574,
      "vos": 575,
      "zal": 576,
      "ina": 577,
      "canos": 578,
      "publica": 579,
      "logro": 580,
      "embargo": 581,
      "miemb": 582,
      "insurgente": 583,
      "mexicano": 584,
      "rayon": 585,
      "fen": 586,
      "vas": 587,
      "leg": 588,
      "lopez": 589,
      "itur": 590,
      "feder": 591,
      "mexicana": 592,
      "gonzal": 593,
      "articulo": 594,
      "diciembre": 595,
      "sigui": 596,
      "ata": 597,
      "villa": 598,
      "gobern": 599,
      "bido": 600,
      "person": 601,
      "medi": 602,
      "tanto": 603,
      "vez": 604,
      "leon": 605,
      "obispo": 606,
      "octu": 607,
      "rar": 608,
      "tarde": 609,
      "dere": 610,
      "haci": 611,
      "octubre": 612,
      "he": 613,
      "fern": 614,
      "miembros": 615,
      "gonzalez": 616,
      "zar": 617,
      "arios": 618,
      "pul": 619,
      "julio": 620,
      "jes": 621,
      "eros": 622,
      "feli": 623,
      "bas": 624,
      "ris": 625,
      "int": 626,
      "tomar": 627,
      "prov": 628,
      "abril": 629,
      "agu": 630,
      "cciones": 631,
      "mada": 632,
      "osa": 633,
      "mientos": 634,
      "guad": 635,
      "maxi": 636,
      "jus": 637,
      "ment": 638,
      "encontra": 639,
      "represent": 640,
      "cap": 641,
      "dec": 642,
      "defen": 643,
      "terior": 644,
      "febr": 645,
      "puer": 646,
      "termin": 647,
      "miliano": 648,
      "virrey": 649,
      "compan": 650,
      "febrero": 651,
      "pec": 652,
      "ademas": 653,
      "vil": 654,
      "chos": 655,
      "perio": 656,
      "calle": 657,
      "impor": 658,
      "primera": 659,
      "bra": 660,
      "bus": 661,
      "rero": 662,
      "junto": 663,
      "herman": 664,
      "ulti": 665,
      "edad": 666,
      "gos": 667,
      "allen": 668,
      "realiz": 669,
      "militares": 670,
      "apoyo": 671,
      "norte": 672,
      "allende": 673,
      "debido": 674,
      "muer": 675,
      "junio": 676,
      "famili": 677,
      "siglo": 678,
      "ecu": 679,
      "zon": 680,
      "zara": 681,
      "enton": 682,
      "luego": 683,
      "medio": 684,
      "dado": 685,
      "mero": 686,
      "tener": 687,
      "igles": 688,
      "entonces": 689,
      "cado": 690,
      "ian": 691,
      "igu": 692,
      "lon": 693,
      "sen": 694,
      "encar": 695,
      "cuent": 696,
      "secre": 697,
      "fir": 698,
      "tenia": 699,
      "grupo": 700,
      "vis": 701,
      "enda": 702,
      "ora": 703,
      "diputados": 704,
      "iturbi": 705,
      "importan": 706,
      "raron": 707,
      "tis": 708,
      "dieron": 709,
      "union": 710,
      "situ": 711,
      "procla": 712,
      "calleja": 713,
      "bo": 714,
      "cel": 715,
      "dida": 716,
      "dirig": 717,
      "contin": 718,
      "mati": 719,
      "sus": 720,
      "baj": 721,
      "conser": 722,
      "autor": 723,
      "iturbide": 724,
      "bor": 725,
      "clas": 726,
      "iano": 727,
      "ni": 728,
      "ofi": 729,
      "pin": 730,
      "ene": 731,
      "alu": 732,
      "ejecu": 733,
      "realista": 734,
      "fernando": 735,
      "eno": 736,
      "lidad": 737,
      "domin": 738,
      "vii": 739,
      "america": 740,
      "cated": 741,
      "soldados": 742,
      "avan": 743,
      "enero": 744,
      "victor": 745,
      "finalmente": 746,
      "poblacion": 747,
      "maximiliano": 748,
      "ll": 749,
      "levan": 750,
      "goza": 751,
      "acan": 752,
      "hab": 753,
      "hizo": 754,
      "ido": 755,
      "coman": 756,
      "guana": 757,
      "nuevo": 758,
      "guanaju": 759,
      "rada": 760,
      "escri": 761,
      "rein": 762,
      "ria": 763,
      "via": 764,
      "taron": 765,
      "guerrero": 766,
      "ordeno": 767,
      "guanajuato": 768,
      "gado": 769,
      "ica": 770,
      "quin": 771,
      "quis": 772,
      "espanoles": 773,
      "zaragoza": 774,
      "cris": 775,
      "reli": 776,
      "inclu": 777,
      "tier": 778,
      "taba": 779,
      "vol": 780,
      "capitan": 781,
      "pueblo": 782,
      "jefe": 783,
      "chihua": 784,
      "historia": 785,
      "catedral": 786,
      "fes": 787,
      "gas": 788,
      "ticia": 789,
      "marzo": 790,
      "quer": 791,
      "carran": 792,
      "iones": 793,
      "puesto": 794,
      "familia": 795,
      "ep": 796,
      "im": 797,
      "sos": 798,
      "comb": 799,
      "cuar": 800,
      "consid": 801,
      "constru": 802,
      "elecciones": 803,
      "bel": 804,
      "ide": 805,
      "iza": 806,
      "estu": 807,
      "armas": 808,
      "inf": 809,
      "vieron": 810,
      "decre": 811,
      "huer": 812,
      "partici": 813,
      "palafo": 814,
      "beni": 815,
      "chihuahua": 816,
      "bal": 817,
      "eli": 818,
      "gal": 819,
      "lin": 820,
      "indu": 821,
      "entre": 822,
      "comer": 823,
      "caus": 824,
      "produ": 825,
      "imper": 826,
      "espanol": 827,
      "secretar": 828,
      "edi": 829,
      "ocu": 830,
      "entro": 831,
      "che": 832,
      "permi": 833,
      "media": 834,
      "presidencia": 835,
      "cabez": 836,
      "ayu": 837,
      "antigu": 838,
      "iglesia": 839,
      "cruz": 840,
      "ela": 841,
      "vel": 842,
      "osto": 843,
      "ori": 844,
      "oro": 845,
      "poco": 846,
      "bien": 847,
      "solo": 848,
      "agosto": 849,
      "frente": 850,
      "inicio": 851,
      "decidio": 852,
      "situacion": 853,
      "18": 854,
      "envi": 855,
      "arro": 856,
      "ciales": 857,
      "republica": 858,
      "inte": 859,
      "terri": 860,
      "carlos": 861,
      "cali": 862,
      "virrein": 863,
      "estadounid": 864,
      "lerdo": 865,
      "beli": 866,
      "declar": 867,
      "consider": 868,
      "estadouniden": 869,
      "ati": 870,
      "ses": 871,
      "zaron": 872,
      "dicion": 873,
      "dido": 874,
      "idos": 875,
      "cargo": 876,
      "obli": 877,
      "liberales": 878,
      "recibio": 879,
      "territor": 880,
      "rse": 881,
      "cido": 882,
      "reti": 883,
      "extran": 884,
      "sitio": 885,
      "mej": 886,
      "tros": 887,
      "vencion": 888,
      "dose": 889,
      "gobernador": 890,
      "mismo": 891,
      "ocas": 892,
      "pad": 893,
      "pcion": 894,
      "inten": 895,
      "lid": 896,
      "actu": 897,
      "idades": 898,
      "constitucional": 899,
      "plaza": 900,
      "comenzo": 901,
      "conserv": 902,
      "eu": 903,
      "hon": 904,
      "lores": 905,
      "ves": 906,
      "mbo": 907,
      "lucha": 908,
      "mariano": 909,
      "politico": 910,
      "ladolid": 911,
      "valladolid": 912,
      "conocido": 913,
      "siguiente": 914,
      "extranj": 915,
      "aun": 916,
      "dor": 917,
      "gun": 918,
      "of": 919,
      "pun": 920,
      "esin": 921,
      "cimiento": 922,
      "regi": 923,
      "tomo": 924,
      "tex": 925,
      "puso": 926,
      "puest": 927,
      "segu": 928,
      "zapa": 929,
      "mul": 930,
      "hacienda": 931,
      "bravo": 932,
      "tlan": 933,
      "ur": 934,
      "arias": 935,
      "cios": 936,
      "cientos": 937,
      "micho": 938,
      "acto": 939,
      "conocer": 940,
      "llego": 941,
      "captur": 942,
      "amb": 943,
      "etar": 944,
      "vision": 945,
      "aria": 946,
      "rebeli": 947,
      "campo": 948,
      "racion": 949,
      "vic": 950,
      "segui": 951,
      "soli": 952,
      "sober": 953,
      "fuerte": 954,
      "abandon": 955,
      "ministro": 956,
      "palacio": 957,
      "muerte": 958,
      "mis": 959,
      "ena": 960,
      "anas": 961,
      "cin": 962,
      "rela": 963,
      "temp": 964,
      "respon": 965,
      "accion": 966,
      "ceso": 967,
      "prision": 968,
      "indigen": 969,
      "guadalu": 970,
      "apro": 971,
      "acuer": 972,
      "cano": 973,
      "fal": 974,
      "pular": 975,
      "institu": 976,
      "nombrado": 977,
      "puerto": 978,
      "continu": 979,
      "cad": 980,
      "mentos": 981,
      "nico": 982,
      "reuni": 983,
      "teca": 984,
      "vida": 985,
      "guar": 986,
      "margar": 987,
      "desta": 988,
      "desarro": 989,
      "hijo": 990,
      "nego": 991,
      "posicion": 992,
      "campana": 993,
      "pesar": 994,
      "encontraba": 995,
      "periodo": 996,
      "carranza": 997,
      "causa": 998,
      "margarita": 999,
      "ate": 1000,
      "din": 1001,
      "eta": 1002,
      "sab": 1003,
      "camb": 1004,
      "mani": 1005,
      "formar": 1006,
      "fusi": 1007,
      "ordenes": 1008,
      "apoy": 1009,
      "libertad": 1010,
      "leyes": 1011,
      "principales": 1012,
      "vicente": 1013,
      "nicolas": 1014,
      "dente": 1015,
      "hacer": 1016,
      "pli": 1017,
      "zos": 1018,
      "escu": 1019,
      "envio": 1020,
      "tiene": 1021,
      "tacion": 1022,
      "popular": 1023,
      "acep": 1024,
      "caron": 1025,
      "cele": 1026,
      "posterior": 1027,
      "porfiri": 1028,
      "franceses": 1029,
      "teniente": 1030,
      "llegaron": 1031,
      "felix": 1032,
      "decreto": 1033,
      "huerta": 1034,
      "benito": 1035,
      "19": 1036,
      "gio": 1037,
      "icion": 1038,
      "pal": 1039,
      "pio": 1040,
      "tada": 1041,
      "adminis": 1042,
      "tica": 1043,
      "tivos": 1044,
      "tamiento": 1045,
      "contro": 1046,
      "ramon": 1047,
      "carta": 1048,
      "joa": 1049,
      "triun": 1050,
      "eleccion": 1051,
      "cuerpo": 1052,
      "organiz": 1053,
      "michoacan": 1054,
      "mun": 1055,
      "encuent": 1056,
      "anna": 1057,
      "ine": 1058,
      "enta": 1059,
      "tillo": 1060,
      "teri": 1061,
      "fico": 1062,
      "gencia": 1063,
      "presiden": 1064,
      "puesta": 1065,
      "grupos": 1066,
      "guadalupe": 1067,
      "acuerdo": 1068,
      "pab": 1069,
      "cieron": 1070,
      "recha": 1071,
      "division": 1072,
      "lider": 1073,
      "convo": 1074,
      "novo": 1075,
      "sigu": 1076,
      "mexicanos": 1077,
      "tando": 1078,
      "casa": 1079,
      "llev": 1080,
      "capilla": 1081,
      "cultura": 1082,
      "euro": 1083,
      "acu": 1084,
      "apar": 1085,
      "ec": 1086,
      "hor": 1087,
      "stin": 1088,
      "dic": 1089,
      "isla": 1090,
      "contr": 1091,
      "tepec": 1092,
      "super": 1093,
      "bilidad": 1094,
      "quez": 1095,
      "pequ": 1096,
      "lares": 1097,
      "pren": 1098,
      "paso": 1099,
      "liberal": 1100,
      "comuni": 1101,
      "intento": 1102,
      "izacion": 1103,
      "palafox": 1104,
      "joaquin": 1105,
      "gente": 1106,
      "esco": 1107,
      "red": 1108,
      "regreso": 1109,
      "conf": 1110,
      "rumbo": 1111,
      "conspi": 1112,
      "esposa": 1113,
      "hui": 1114,
      "capitu": 1115,
      "publico": 1116,
      "centro": 1117,
      "queretar": 1118,
      "cuaro": 1119,
      "padre": 1120,
      "porfiriato": 1121,
      "queretaro": 1122,
      "aj": 1123,
      "ardo": 1124,
      "cir": 1125,
      "iste": 1126,
      "vier": 1127,
      "resul": 1128,
      "momento": 1129,
      "bibli": 1130,
      "caso": 1131,
      "hoy": 1132,
      "primeros": 1133,
      "nombre": 1134,
      "indias": 1135,
      "cabo": 1136,
      "renun": 1137,
      "justicia": 1138,
      "imperio": 1139,
      "posteriormente": 1140,
      "epo": 1141,
      "fra": 1142,
      "llos": 1143,
      "mn": 1144,
      "yu": 1145,
      "espe": 1146,
      "eria": 1147,
      "tuvieron": 1148,
      "cura": 1149,
      "tracion": 1150,
      "obje": 1151,
      "murio": 1152,
      "vers": 1153,
      "final": 1154,
      "principal": 1155,
      "derecho": 1156,
      "incluso": 1157,
      "secretario": 1158,
      "ocasion": 1159,
      "lad": 1160,
      "lor": 1161,
      "llas": 1162,
      "sent": 1163,
      "ani": 1164,
      "rango": 1165,
      "social": 1166,
      "garcia": 1167,
      "obra": 1168,
      "numero": 1169,
      "version": 1170,
      "pesos": 1171,
      "economica": 1172,
      "agustin": 1173,
      "indigenas": 1174,
      "confli": 1175,
      "brig": 1176,
      "edu": 1177,
      "fon": 1178,
      "ge": 1179,
      "gri": 1180,
      "jara": 1181,
      "ldo": 1182,
      "mal": 1183,
      "tales": 1184,
      "esper": 1185,
      "ase": 1186,
      "republi": 1187,
      "reconoci": 1188,
      "orig": 1189,
      "tia": 1190,
      "tian": 1191,
      "colo": 1192,
      "colu": 1193,
      "cau": 1194,
      "lib": 1195,
      "total": 1196,
      "mier": 1197,
      "potos": 1198,
      "char": 1199,
      "mane": 1200,
      "traba": 1201,
      "francia": 1202,
      "tria": 1203,
      "intervencion": 1204,
      "fron": 1205,
      "americanos": 1206,
      "derrotado": 1207,
      "federal": 1208,
      "personas": 1209,
      "victoria": 1210,
      "estadounidense": 1211,
      "pablo": 1212,
      "novohis": 1213,
      "ahi": 1214,
      "gre": 1215,
      "ller": 1216,
      "vor": 1217,
      "zco": 1218,
      "enfr": 1219,
      "and": 1220,
      "ania": 1221,
      "cili": 1222,
      "reforma": 1223,
      "relacion": 1224,
      "dios": 1225,
      "dijo": 1226,
      "taman": 1227,
      "consu": 1228,
      "docu": 1229,
      "expe": 1230,
      "segun": 1231,
      "provo": 1232,
      "pios": 1233,
      "pidio": 1234,
      "estra": 1235,
      "fec": 1236,
      "gios": 1237,
      "reyes": 1238,
      "tenian": 1239,
      "consejo": 1240,
      "derechos": 1241,
      "hecho": 1242,
      "dirigio": 1243,
      "biblio": 1244,
      "potosi": 1245,
      "az": 1246,
      "acompan": 1247,
      "bun": 1248,
      "dra": 1249,
      "ea": 1250,
      "lados": 1251,
      "rera": 1252,
      "eras": 1253,
      "encias": 1254,
      "ciar": 1255,
      "alda": 1256,
      "insu": 1257,
      "tico": 1258,
      "coa": 1259,
      "romero": 1260,
      "rieron": 1261,
      "mata": 1262,
      "supre": 1263,
      "sier": 1264,
      "dese": 1265,
      "paz": 1266,
      "obras": 1267,
      "muy": 1268,
      "ciudades": 1269,
      "tropa": 1270,
      "llegar": 1271,
      "lograron": 1272,
      "comision": 1273,
      "comenzaron": 1274,
      "jesus": 1275,
      "encontraban": 1276,
      "igual": 1277,
      "ayuda": 1278,
      "desarrollo": 1279,
      "presidencial": 1280,
      "origin": 1281,
      "blan": 1282,
      "gada": 1283,
      "muni": 1284,
      "pel": 1285,
      "anza": 1286,
      "inmedia": 1287,
      "diri": 1288,
      "resta": 1289,
      "resto": 1290,
      "respe": 1291,
      "manera": 1292,
      "abo": 1293,
      "martin": 1294,
      "propi": 1295,
      "cara": 1296,
      "tantes": 1297,
      "cepcion": 1298,
      "formo": 1299,
      "alajara": 1300,
      "politicos": 1301,
      "francesa": 1302,
      "funcion": 1303,
      "felipe": 1304,
      "guadalajara": 1305,
      "territorio": 1306,
      "zapata": 1307,
      "rebelion": 1308,
      "epoca": 1309,
      "novohisp": 1310,
      "segunda": 1311,
      "hen": 1312,
      "ji": 1313,
      "lero": 1314,
      "sacer": 1315,
      "ona": 1316,
      "rebel": 1317,
      "isten": 1318,
      "iscal": 1319,
      "vidad": 1320,
      "gol": 1321,
      "noche": 1322,
      "manana": 1323,
      "napo": 1324,
      "perez": 1325,
      "casi": 1326,
      "gido": 1327,
      "llevo": 1328,
      "tribun": 1329,
      "favor": 1330,
      "neces": 1331,
      "partido": 1332,
      "meses": 1333,
      "traslad": 1334,
      "hermano": 1335,
      "indul": 1336,
      "puestos": 1337,
      "siguio": 1338,
      "sacerdo": 1339,
      "ima": 1340,
      "jar": 1341,
      "mez": 1342,
      "rados": 1343,
      "tz": 1344,
      "varez": 1345,
      "xvi": 1346,
      "zado": 1347,
      "esca": 1348,
      "ciedad": 1349,
      "alvarez": 1350,
      "reunion": 1351,
      "caba": 1352,
      "camin": 1353,
      "mia": 1354,
      "paci": 1355,
      "sociedad": 1356,
      "trabaj": 1357,
      "peninsu": 1358,
      "hijos": 1359,
      "guir": 1360,
      "principios": 1361,
      "comand": 1362,
      "soberania": 1363,
      "napoleon": 1364,
      "vista": 1365,
      "ang": 1366,
      "asesin": 1367,
      "recu": 1368,
      "retra": 1369,
      "difer": 1370,
      "diendo": 1371,
      "toli": 1372,
      "dolores": 1373,
      "cuesti": 1374,
      "sebas": 1375,
      "manos": 1376,
      "desig": 1377,
      "tores": 1378,
      "conocio": 1379,
      "lesias": 1380,
      "candida": 1381,
      "realizo": 1382,
      "aus": 1383,
      "nuevamente": 1384,
      "logia": 1385,
      "qued": 1386,
      "adier": 1387,
      "ultimo": 1388,
      "clase": 1389,
      "habi": 1390,
      "ambos": 1391,
      "eclesias": 1392,
      "superior": 1393,
      "biblioteca": 1394,
      "sebastian": 1395,
      "cada": 1396,
      "crio": 1397,
      "egas": 1398,
      "ie": 1399,
      "ix": 1400,
      "ial": 1401,
      "jas": 1402,
      "otor": 1403,
      "pado": 1404,
      "tadas": 1405,
      "ye": 1406,
      "civil": 1407,
      "alta": 1408,
      "reeleccion": 1409,
      "invas": 1410,
      "dire": 1411,
      "divi": 1412,
      "cola": 1413,
      "comi": 1414,
      "promul": 1415,
      "permane": 1416,
      "muse": 1417,
      "durango": 1418,
      "llamado": 1419,
      "monar": 1420,
      "unica": 1421,
      "trigar": 1422,
      "venegas": 1423,
      "salio": 1424,
      "partir": 1425,
      "cabal": 1426,
      "mayoria": 1427,
      "ayun": 1428,
      "jesu": 1429,
      "provinci": 1430,
      "oficial": 1431,
      "avance": 1432,
      "crisis": 1433,
      "conservadores": 1434,
      "administracion": 1435,
      "brigadier": 1436,
      "apre": 1437,
      "cana": 1438,
      "ctos": 1439,
      "dal": 1440,
      "gab": 1441,
      "nun": 1442,
      "pra": 1443,
      "plo": 1444,
      "rales": 1445,
      "aran": 1446,
      "rez": 1447,
      "orte": 1448,
      "tab": 1449,
      "taban": 1450,
      "unio": 1451,
      "acti": 1452,
      "mpli": 1453,
      "ficacion": 1454,
      "torres": 1455,
      "embaj": 1456,
      "cortes": 1457,
      "garanti": 1458,
      "cerro": 1459,
      "audi": 1460,
      "tural": 1461,
      "turas": 1462,
      "prepar": 1463,
      "ferro": 1464,
      "rosa": 1465,
      "porfir": 1466,
      "aga": 1467,
      "instru": 1468,
      "corona": 1469,
      "plata": 1470,
      "barra": 1471,
      "servi": 1472,
      "serie": 1473,
      "cursos": 1474,
      "traslado": 1475,
      "provision": 1476,
      "termino": 1477,
      "bustaman": 1478,
      "ultima": 1479,
      "autoridades": 1480,
      "cadiz": 1481,
      "sierra": 1482,
      "angel": 1483,
      "bustamante": 1484,
      "evi": 1485,
      "hac": 1486,
      "jer": 1487,
      "nos": 1488,
      "siste": 1489,
      "ubi": 1490,
      "encabez": 1491,
      "regon": 1492,
      "inquis": 1493,
      "inversion": 1494,
      "dir": 1495,
      "colon": 1496,
      "catoli": 1497,
      "teo": 1498,
      "guez": 1499,
      "maba": 1500,
      "manda": 1501,
      "acciones": 1502,
      "ques": 1503,
      "quia": 1504,
      "figu": 1505,
      "sola": 1506,
      "pie": 1507,
      "daca": 1508,
      "obregon": 1509,
      "insurgencia": 1510,
      "fines": 1511,
      "tribu": 1512,
      "interes": 1513,
      "apodaca": 1514,
      "espanola": 1515,
      "recibi": 1516,
      "quier": 1517,
      "region": 1518,
      "istia": 1519,
      "legisla": 1520,
      "federales": 1521,
      "ataque": 1522,
      "zona": 1523,
      "religios": 1524,
      "volvio": 1525,
      "virreinato": 1526,
      "mejor": 1527,
      "punto": 1528,
      "relaciones": 1529,
      "cambio": 1530,
      "triunfo": 1531,
      "conflicto": 1532,
      "munici": 1533,
      "museo": 1534,
      "ortega": 1535,
      "ami": 1536,
      "apan": 1537,
      "cra": 1538,
      "dent": 1539,
      "icio": 1540,
      "sta": 1541,
      "vento": 1542,
      "yeron": 1543,
      "aso": 1544,
      "ing": 1545,
      "enti": 1546,
      "confor": 1547,
      "defin": 1548,
      "cuau": 1549,
      "idas": 1550,
      "teran": 1551,
      "presion": 1552,
      "canas": 1553,
      "costa": 1554,
      "instal": 1555,
      "derrota": 1556,
      "moros": 1557,
      "articulos": 1558,
      "justo": 1559,
      "importantes": 1560,
      "tista": 1561,
      "cristo": 1562,
      "teriores": 1563,
      "aldama": 1564,
      "coahui": 1565,
      "istencia": 1566,
      "cun": 1567,
      "jada": 1568,
      "mel": 1569,
      "sar": 1570,
      "alli": 1571,
      "refor": 1572,
      "convir": 1573,
      "rafa": 1574,
      "later": 1575,
      "tejada": 1576,
      "mio": 1577,
      "noti": 1578,
      "dada": 1579,
      "carac": 1580,
      "fica": 1581,
      "traves": 1582,
      "cala": 1583,
      "calidad": 1584,
      "llamada": 1585,
      "cerca": 1586,
      "fuerza": 1587,
      "grandes": 1588,
      "gracias": 1589,
      "decision": 1590,
      "economico": 1591,
      "defensa": 1592,
      "cuenta": 1593,
      "ejecutivo": 1594,
      "tierra": 1595,
      "influ": 1596,
      "permiti": 1597,
      "permitio": 1598,
      "honor": 1599,
      "texas": 1600,
      "mundo": 1601,
      "column": 1602,
      "matamoros": 1603,
      "xviii": 1604,
      "escapar": 1605,
      "nunca": 1606,
      "actividad": 1607,
      "audiencia": 1608,
      "sistema": 1609,
      "coahuila": 1610,
      "aciones": 1611,
      "dentro": 1612,
      "mados": 1613,
      "pl": 1614,
      "vuel": 1615,
      "leo": 1616,
      "tec": 1617,
      "tel": 1618,
      "dez": 1619,
      "cual": 1620,
      "able": 1621,
      "carri": 1622,
      "corpor": 1623,
      "trimon": 1624,
      "poderes": 1625,
      "hermanos": 1626,
      "matias": 1627,
      "sustitu": 1628,
      "escribio": 1629,
      "indus": 1630,
      "antiguo": 1631,
      "inete": 1632,
      "apare": 1633,
      "respecto": 1634,
      "indulto": 1635,
      "habitantes": 1636,
      "gabinete": 1637,
      "cuautla": 1638,
      "caracter": 1639,
      "bro": 1640,
      "bando": 1641,
      "cados": 1642,
      "cru": 1643,
      "cales": 1644,
      "fri": 1645,
      "itas": 1646,
      "oper": 1647,
      "vesti": 1648,
      "arz": 1649,
      "oso": 1650,
      "altar": 1651,
      "ascen": 1652,
      "redu": 1653,
      "recursos": 1654,
      "cabi": 1655,
      "conde": 1656,
      "conclu": 1657,
      "reso": 1658,
      "restos": 1659,
      "cuba": 1660,
      "exten": 1661,
      "maest": 1662,
      "prohi": 1663,
      "tarse": 1664,
      "solu": 1665,
      "metro": 1666,
      "tante": 1667,
      "cando": 1668,
      "tron": 1669,
      "estatu": 1670,
      "grande": 1671,
      "herrera": 1672,
      "acapul": 1673,
      "jefes": 1674,
      "cultad": 1675,
      "tenido": 1676,
      "central": 1677,
      "economia": 1678,
      "consecu": 1679,
      "curso": 1680,
      "persona": 1681,
      "iguala": 1682,
      "combate": 1683,
      "construccion": 1684,
      "gale": 1685,
      "edifi": 1686,
      "ofre": 1687,
      "capturado": 1688,
      "seguido": 1689,
      "conspiracion": 1690,
      "educacion": 1691,
      "design": 1692,
      "jesuitas": 1693,
      "mandato": 1694,
      "trimonio": 1695,
      "acapulco": 1696,
      "gabri": 1697,
      "mala": 1698,
      "sor": 1699,
      "sala": 1700,
      "tre": 1701,
      "enos": 1702,
      "ale": 1703,
      "alto": 1704,
      "asu": 1705,
      "asun": 1706,
      "oriz": 1707,
      "tido": 1708,
      "dico": 1709,
      "diente": 1710,
      "conven": 1711,
      "tehu": 1712,
      "chas": 1713,
      "chor": 1714,
      "suces": 1715,
      "mariscal": 1716,
      "tera": 1717,
      "bille": 1718,
      "proceso": 1719,
      "pacion": 1720,
      "presento": 1721,
      "santo": 1722,
      "metros": 1723,
      "mina": 1724,
      "canti": 1725,
      "largo": 1726,
      "finales": 1727,
      "asimismo": 1728,
      "revolucionarios": 1729,
      "independent": 1730,
      "establecio": 1731,
      "establece": 1732,
      "importante": 1733,
      "actual": 1734,
      "especial": 1735,
      "suprema": 1736,
      "rebeldes": 1737,
      "tribunal": 1738,
      "ayuntamiento": 1739,
      "galeana": 1740,
      "gabriel": 1741,
      "amente": 1742,
      "clero": 1743,
      "dan": 1744,
      "eo": 1745,
      "il": 1746,
      "imo": 1747,
      "ilu": 1748,
      "idio": 1749,
      "uti": 1750,
      "yendo": 1751,
      "regres": 1752,
      "incia": 1753,
      "tiz": 1754,
      "tamente": 1755,
      "taciones": 1756,
      "conver": 1757,
      "concili": 1758,
      "tele": 1759,
      "cubier": 1760,
      "extra": 1761,
      "noticia": 1762,
      "eza": 1763,
      "marquez": 1764,
      "siemp": 1765,
      "tero": 1766,
      "torre": 1767,
      "zacate": 1768,
      "memor": 1769,
      "corte": 1770,
      "cedio": 1771,
      "mone": 1772,
      "monte": 1773,
      "ejerci": 1774,
      "fuerzos": 1775,
      "salir": 1776,
      "sonora": 1777,
      "organizacion": 1778,
      "iii": 1779,
      "provincia": 1780,
      "realizar": 1781,
      "encargado": 1782,
      "combati": 1783,
      "estudio": 1784,
      "comercio": 1785,
      "regimen": 1786,
      "cingo": 1787,
      "control": 1788,
      "lideres": 1789,
      "horas": 1790,
      "yuca": 1791,
      "reconocimiento": 1792,
      "trabajo": 1793,
      "dirigi": 1794,
      "comandante": 1795,
      "criollos": 1796,
      "aprehen": 1797,
      "prac": 1798,
      "melchor": 1799,
      "siempre": 1800,
      "aco": 1801,
      "atro": 1802,
      "emi": 1803,
      "iv": 1804,
      "endas": 1805,
      "armi": 1806,
      "civi": 1807,
      "alco": 1808,
      "reino": 1809,
      "retab": 1810,
      "invi": 1811,
      "contaba": 1812,
      "rami": 1813,
      "gomez": 1814,
      "idor": 1815,
      "idores": 1816,
      "semin": 1817,
      "juicio": 1818,
      "mano": 1819,
      "maron": 1820,
      "rurales": 1821,
      "corre": 1822,
      "cela": 1823,
      "mujer": 1824,
      "monu": 1825,
      "pron": 1826,
      "pascual": 1827,
      "virgen": 1828,
      "paises": 1829,
      "interior": 1830,
      "quedo": 1831,
      "agri": 1832,
      "xix": 1833,
      "dono": 1834,
      "inici": 1835,
      "establecer": 1836,
      "trans": 1837,
      "tomaron": 1838,
      "importancia": 1839,
      "clases": 1840,
      "europa": 1841,
      "comunicacion": 1842,
      "inmediato": 1843,
      "provisional": 1844,
      "hacen": 1845,
      "orizaba": 1846,
      "cantidad": 1847,
      "armijo": 1848,
      "afir": 1849,
      "efi": 1850,
      "flores": 1851,
      "hos": 1852,
      "rer": 1853,
      "zita": 1854,
      "escla": 1855,
      "anterior": 1856,
      "arri": 1857,
      "argu": 1858,
      "reconocer": 1859,
      "ordin": 1860,
      "enter": 1861,
      "ticos": 1862,
      "camar": 1863,
      "romp": 1864,
      "latin": 1865,
      "vice": 1866,
      "dejo": 1867,
      "pusi": 1868,
      "matrimonio": 1869,
      "rano": 1870,
      "teria": 1871,
      "tercer": 1872,
      "prote": 1873,
      "parro": 1874,
      "berna": 1875,
      "ceder": 1876,
      "castillo": 1877,
      "ejo": 1878,
      "numer": 1879,
      "llevar": 1880,
      "unieron": 1881,
      "facultad": 1882,
      "negre": 1883,
      "nombro": 1884,
      "graf": 1885,
      "comun": 1886,
      "poner": 1887,
      "campesin": 1888,
      "histori": 1889,
      "diputado": 1890,
      "tistas": 1891,
      "suspen": 1892,
      "ideas": 1893,
      "cabeza": 1894,
      "bienes": 1895,
      "ofreci": 1896,
      "regimiento": 1897,
      "escuela": 1898,
      "europe": 1899,
      "circu": 1900,
      "objetivo": 1901,
      "ferrocarri": 1902,
      "convirtio": 1903,
      "arzobispo": 1904,
      "cabildo": 1905,
      "zacatecas": 1906,
      "zitacuaro": 1907,
      "aqu": 1908,
      "bon": 1909,
      "daba": 1910,
      "elo": 1911,
      "gados": 1912,
      "hero": 1913,
      "tador": 1914,
      "espa": 1915,
      "erador": 1916,
      "enci": 1917,
      "endose": 1918,
      "arqui": 1919,
      "adu": 1920,
      "ali": 1921,
      "alvar": 1922,
      "rede": 1923,
      "inos": 1924,
      "condi": 1925,
      "convento": 1926,
      "doza": 1927,
      "deu": 1928,
      "chez": 1929,
      "marcha": 1930,
      "quini": 1931,
      "taria": 1932,
      "papel": 1933,
      "estan": 1934,
      "sanchez": 1935,
      "correspon": 1936,
      "fort": 1937,
      "fortal": 1938,
      "izquier": 1939,
      "cere": 1940,
      "creacion": 1941,
      "unirse": 1942,
      "guerri": 1943,
      "mader": 1944,
      "generales": 1945,
      "queo": 1946,
      "agr": 1947,
      "emperador": 1948,
      "conocida": 1949,
      "formacion": 1950,
      "ceno": 1951,
      "ministros": 1952,
      "conseguir": 1953,
      "estilo": 1954,
      "compania": 1955,
      "visi": 1956,
      "bajio": 1957,
      "oficiales": 1958,
      "llones": 1959,
      "participar": 1960,
      "orozco": 1961,
      "estadounidenses": 1962,
      "conservador": 1963,
      "templo": 1964,
      "institucion": 1965,
      "renuncia": 1966,
      "documento": 1967,
      "expedicion": 1968,
      "restau": 1969,
      "propiedad": 1970,
      "golpe": 1971,
      "camino": 1972,
      "peninsulares": 1973,
      "recuper": 1974,
      "yecto": 1975,
      "inquisicion": 1976,
      "consecuencia": 1977,
      "negrete": 1978,
      "dri": 1979,
      "fis": 1980,
      "ger": 1981,
      "nia": 1982,
      "eran": 1983,
      "andose": 1984,
      "arres": 1985,
      "alo": 1986,
      "dicho": 1987,
      "diego": 1988,
      "tolu": 1989,
      "millones": 1990,
      "tud": 1991,
      "cumpli": 1992,
      "excepcion": 1993,
      "mag": 1994,
      "sede": 1995,
      "separ": 1996,
      "motivo": 1997,
      "terio": 1998,
      "destin": 1999,
      "desemp": 2000,
      "carse": 2001,
      "carcel": 2002,
      "natural": 2003,
      "patria": 2004,
      "estru": 2005,
      "santos": 2006,
      "lanzo": 2007,
      "titulo": 2008,
      "nuevas": 2009,
      "menez": 2010,
      "mendoza": 2011,
      "penas": 2012,
      "salv": 2013,
      "hicieron": 2014,
      "banco": 2015,
      "empres": 2016,
      "reno": 2017,
      "centen": 2018,
      "bur": 2019,
      "iturri": 2020,
      "aguas": 2021,
      "representantes": 2022,
      "defender": 2023,
      "palafoxi": 2024,
      "puestas": 2025,
      "abandono": 2026,
      "organizar": 2027,
      "convoco": 2028,
      "pequeno": 2029,
      "asegu": 2030,
      "jimenez": 2031,
      "colabor": 2032,
      "provincias": 2033,
      "rosains": 2034,
      "angeles": 2035,
      "piedra": 2036,
      "intereses": 2037,
      "rafael": 2038,
      "noticias": 2039,
      "condiciones": 2040,
      "quinientos": 2041,
      "ceremon": 2042,
      "toluca": 2043,
      "apli": 2044,
      "bri": 2045,
      "efec": 2046,
      "gor": 2047,
      "gacion": 2048,
      "nino": 2049,
      "ocur": 2050,
      "odono": 2051,
      "encontr": 2052,
      "anto": 2053,
      "andez": 2054,
      "artes": 2055,
      "alrede": 2056,
      "rema": 2057,
      "reales": 2058,
      "ortiz": 2059,
      "incre": 2060,
      "entu": 2061,
      "entaron": 2062,
      "tivas": 2063,
      "comon": 2064,
      "lice": 2065,
      "concha": 2066,
      "convencion": 2067,
      "rid": 2068,
      "riano": 2069,
      "mir": 2070,
      "gober": 2071,
      "existi": 2072,
      "maza": 2073,
      "secu": 2074,
      "seman": 2075,
      "judi": 2076,
      "absolu": 2077,
      "rando": 2078,
      "siti": 2079,
      "sociales": 2080,
      "partes": 2081,
      "perten": 2082,
      "trata": 2083,
      "sando": 2084,
      "santia": 2085,
      "garay": 2086,
      "huir": 2087,
      "canon": 2088,
      "calles": 2089,
      "gica": 2090,
      "unico": 2091,
      "preten": 2092,
      "madrid": 2093,
      "lograr": 2094,
      "posible": 2095,
      "posibilidad": 2096,
      "funda": 2097,
      "campanas": 2098,
      "tivamente": 2099,
      "personal": 2100,
      "haciendas": 2101,
      "representacion": 2102,
      "captura": 2103,
      "encargo": 2104,
      "proclamo": 2105,
      "matico": 2106,
      "impul": 2107,
      "estudios": 2108,
      "declaro": 2109,
      "seguir": 2110,
      "solicito": 2111,
      "responsab": 2112,
      "falle": 2113,
      "etapa": 2114,
      "redac": 2115,
      "capitulo": 2116,
      "republicano": 2117,
      "caudi": 2118,
      "andres": 2119,
      "blanco": 2120,
      "cuestion": 2121,
      "embajador": 2122,
      "garantias": 2123,
      "catolica": 2124,
      "municipio": 2125,
      "laterales": 2126,
      "columnas": 2127,
      "edificio": 2128,
      "yucatan": 2129,
      "seminario": 2130,
      "monumento": 2131,
      "pusieron": 2132,
      "campesinos": 2133,
      "estruc": 2134,
      "iturrigaray": 2135,
      "odonoju": 2136,
      "comonfort": 2137,
      "santiago": 2138,
      "17": 2139,
      "amen": 2140,
      "avier": 2141,
      "apenas": 2142,
      "hora": 2143,
      "lal": 2144,
      "lpan": 2145,
      "radi": 2146,
      "sas": 2147,
      "sto": 2148,
      "stas": 2149,
      "xavier": 2150,
      "archi": 2151,
      "armado": 2152,
      "cienti": 2153,
      "alis": 2154,
      "refer": 2155,
      "reina": 2156,
      "ticas": 2157,
      "didos": 2158,
      "diplo": 2159,
      "caci": 2160,
      "cayo": 2161,
      "liman": 2162,
      "tamientos": 2163,
      "toma": 2164,
      "tour": 2165,
      "conden": 2166,
      "condu": 2167,
      "doctor": 2168,
      "laba": 2169,
      "tez": 2170,
      "vivi": 2171,
      "dedi": 2172,
      "tux": 2173,
      "cuad": 2174,
      "pomu": 2175,
      "expres": 2176,
      "chia": 2177,
      "acceso": 2178,
      "simp": 2179,
      "descri": 2180,
      "profes": 2181,
      "proyecto": 2182,
      "carlo": 2183,
      "carmen": 2184,
      "nave": 2185,
      "papa": 2186,
      "patz": 2187,
      "peli": 2188,
      "consag": 2189,
      "corn": 2190,
      "verdad": 2191,
      "conocia": 2192,
      "nuevos": 2193,
      "mencion": 2194,
      "creo": 2195,
      "distin": 2196,
      "pueblos": 2197,
      "bander": 2198,
      "nepomu": 2199,
      "comple": 2200,
      "plane": 2201,
      "hombre": 2202,
      "principio": 2203,
      "federacion": 2204,
      "medidas": 2205,
      "mental": 2206,
      "contingente": 2207,
      "pinturas": 2208,
      "produccion": 2209,
      "imperial": 2210,
      "antigua": 2211,
      "oriente": 2212,
      "origen": 2213,
      "enviado": 2214,
      "integ": 2215,
      "virreinal": 2216,
      "extranjera": 2217,
      "solici": 2218,
      "continuo": 2219,
      "celebr": 2220,
      "encuentra": 2221,
      "libros": 2222,
      "consul": 2223,
      "provoco": 2224,
      "estrate": 2225,
      "aboli": 2226,
      "imagen": 2227,
      "instruccion": 2228,
      "recibir": 2229,
      "cristobal": 2230,
      "maestro": 2231,
      "metropoli": 2232,
      "asuntos": 2233,
      "ilus": 2234,
      "practica": 2235,
      "espacio": 2236,
      "palafoxiana": 2237,
      "alrededor": 2238,
      "limantour": 2239,
      "nepomuceno": 2240,
      "daron": 2241,
      "eci": 2242,
      "gano": 2243,
      "hal": 2244,
      "jeron": 2245,
      "ocampo": 2246,
      "rin": 2247,
      "stante": 2248,
      "tres": 2249,
      "uso": 2250,
      "anu": 2251,
      "altura": 2252,
      "tifi": 2253,
      "lian": 2254,
      "libre": 2255,
      "confi": 2256,
      "ramos": 2257,
      "legi": 2258,
      "miramon": 2259,
      "dej": 2260,
      "del": 2261,
      "demo": 2262,
      "guate": 2263,
      "guberna": 2264,
      "juana": 2265,
      "julian": 2266,
      "abaso": 2267,
      "acor": 2268,
      "marcos": 2269,
      "marina": 2270,
      "dadas": 2271,
      "proble": 2272,
      "propuesta": 2273,
      "cargos": 2274,
      "navar": 2275,
      "paris": 2276,
      "ruiz": 2277,
      "rubio": 2278,
      "estas": 2279,
      "toria": 2280,
      "tratados": 2281,
      "traicion": 2282,
      "cedi": 2283,
      "obstante": 2284,
      "ejemp": 2285,
      "canones": 2286,
      "postu": 2287,
      "lanos": 2288,
      "favo": 2289,
      "hija": 2290,
      "estabilidad": 2291,
      "madas": 2292,
      "elegido": 2293,
      "espanolas": 2294,
      "leria": 2295,
      "nombra": 2296,
      "derroto": 2297,
      "bernardo": 2298,
      "noria": 2299,
      "adicion": 2300,
      "tlax": 2301,
      "terminar": 2302,
      "ultimos": 2303,
      "proclama": 2304,
      "autoridad": 2305,
      "levantamiento": 2306,
      "tierras": 2307,
      "ocupar": 2308,
      "181": 2309,
      "integran": 2310,
      "calientes": 2311,
      "territorios": 2312,
      "extranjeros": 2313,
      "rebeliones": 2314,
      "manif": 2315,
      "rechazo": 2316,
      "prensa": 2317,
      "resultado": 2318,
      "ocasiono": 2319,
      "acompanado": 2320,
      "sacerdote": 2321,
      "retrato": 2322,
      "trigarante": 2323,
      "porfirista": 2324,
      "solamente": 2325,
      "legislativo": 2326,
      "vuelta": 2327,
      "billete": 2328,
      "civiles": 2329,
      "celaya": 2330,
      "facultades": 2331,
      "centenario": 2332,
      "liceaga": 2333,
      "judicial": 2334,
      "estructura": 2335,
      "carlota": 2336,
      "abasolo": 2337,
      "at": 2338,
      "basi": 2339,
      "et": 2340,
      "ecer": 2341,
      "fabri": 2342,
      "garon": 2343,
      "gaba": 2344,
      "sac": 2345,
      "tana": 2346,
      "ucar": 2347,
      "wil": 2348,
      "xvii": 2349,
      "yer": 2350,
      "enfer": 2351,
      "arte": 2352,
      "cimientos": 2353,
      "inmin": 2354,
      "infor": 2355,
      "incorpor": 2356,
      "dice": 2357,
      "diga": 2358,
      "col": 2359,
      "caida": 2360,
      "tagon": 2361,
      "tomas": 2362,
      "isa": 2363,
      "ist": 2364,
      "condicion": 2365,
      "lectu": 2366,
      "adop": 2367,
      "una": 2368,
      "uncio": 2369,
      "respec": 2370,
      "resistencia": 2371,
      "gutier": 2372,
      "mbre": 2373,
      "novel": 2374,
      "abi": 2375,
      "sub": 2376,
      "suble": 2377,
      "sir": 2378,
      "desa": 2379,
      "despo": 2380,
      "sole": 2381,
      "minu": 2382,
      "tasio": 2383,
      "garse": 2384,
      "ced": 2385,
      "fornia": 2386,
      "cesion": 2387,
      "ciudadanos": 2388,
      "menos": 2389,
      "monter": 2390,
      "unido": 2391,
      "univers": 2392,
      "augu": 2393,
      "guiller": 2394,
      "distas": 2395,
      "madre": 2396,
      "elector": 2397,
      "tono": 2398,
      "chilpan": 2399,
      "revolucionarias": 2400,
      "planes": 2401,
      "valle": 2402,
      "independiente": 2403,
      "derrotas": 2404,
      "ministerio": 2405,
      "mori": 2406,
      "llegado": 2407,
      "siguieron": 2408,
      "medida": 2409,
      "leonardo": 2410,
      "fernandez": 2411,
      "base": 2412,
      "senal": 2413,
      "proclamado": 2414,
      "domingo": 2415,
      "dominguez": 2416,
      "llano": 2417,
      "benitez": 2418,
      "comerci": 2419,
      "intelectu": 2420,
      "california": 2421,
      "mejia": 2422,
      "seguidores": 2423,
      "aproxi": 2424,
      "reunirse": 2425,
      "acepto": 2426,
      "enfrenta": 2427,
      "martinez": 2428,
      "ausencia": 2429,
      "invasion": 2430,
      "evitar": 2431,
      "influencia": 2432,
      "actividades": 2433,
      "hacendados": 2434,
      "camara": 2435,
      "aguascalientes": 2436,
      "gutierrez": 2437,
      "guillermo": 2438,
      "chilpancingo": 2439,
      "00": 2440,
      "clar": 2441,
      "cadas": 2442,
      "egi": 2443,
      "fac": 2444,
      "gando": 2445,
      "greg": 2446,
      "icas": 2447,
      "oc": 2448,
      "oposicion": 2449,
      "reros": 2450,
      "zada": 2451,
      "esto": 2452,
      "aro": 2453,
      "cita": 2454,
      "ciado": 2455,
      "ciendo": 2456,
      "cidos": 2457,
      "osor": 2458,
      "alcan": 2459,
      "alhon": 2460,
      "regu": 2461,
      "recor": 2462,
      "requer": 2463,
      "reunio": 2464,
      "entrada": 2465,
      "tir": 2466,
      "tien": 2467,
      "tilla": 2468,
      "cambi": 2469,
      "rode": 2470,
      "laciones": 2471,
      "dejar": 2472,
      "respal": 2473,
      "cuanto": 2474,
      "expli": 2475,
      "exteriores": 2476,
      "logran": 2477,
      "materi": 2478,
      "secun": 2479,
      "modo": 2480,
      "charon": 2481,
      "abra": 2482,
      "marcho": 2483,
      "siva": 2484,
      "terna": 2485,
      "exito": 2486,
      "exilio": 2487,
      "rugada": 2488,
      "tratado": 2489,
      "medal": 2490,
      "mineria": 2491,
      "cora": 2492,
      "fecha": 2493,
      "verdu": 2494,
      "pose": 2495,
      "postura": 2496,
      "pros": 2497,
      "crear": 2498,
      "autono": 2499,
      "trito": 2500,
      "distrito": 2501,
      "madrugada": 2502,
      "recib": 2503,
      "york": 2504,
      "americana": 2505,
      "francesas": 2506,
      "ctores": 2507,
      "ayala": 2508,
      "bedo": 2509,
      "principalmente": 2510,
      "llegada": 2511,
      "siguientes": 2512,
      "atacar": 2513,
      "puerta": 2514,
      "iglesias": 2515,
      "visto": 2516,
      "bove": 2517,
      "dirigida": 2518,
      "matica": 2519,
      "nivel": 2520,
      "pintor": 2521,
      "ejecucion": 2522,
      "victoriano": 2523,
      "volver": 2524,
      "epis": 2525,
      "considerado": 2526,
      "sesiones": 2527,
      "obligado": 2528,
      "ocasiones": 2529,
      "intendencia": 2530,
      "abandonar": 2531,
      "anastasio": 2532,
      "cambios": 2533,
      "encuentran": 2534,
      "conspir": 2535,
      "novohispanos": 2536,
      "trabajadores": 2537,
      "candidato": 2538,
      "invasores": 2539,
      "unicamente": 2540,
      "trigarantes": 2541,
      "religiosas": 2542,
      "defini": 2543,
      "tehuacan": 2544,
      "extraordin": 2545,
      "retablo": 2546,
      "vicepresidente": 2547,
      "grafia": 2548,
      "tuxtepec": 2549,
      "simpati": 2550,
      "inminente": 2551,
      "alhondiga": 2552,
      "verduzco": 2553,
      "aten": 2554,
      "afec": 2555,
      "ev": 2556,
      "eva": 2557,
      "efe": 2558,
      "emiliano": 2559,
      "gr": 2560,
      "gion": 2561,
      "iente": 2562,
      "illa": 2563,
      "jero": 2564,
      "ple": 2565,
      "pacto": 2566,
      "ura": 2567,
      "esa": 2568,
      "espi": 2569,
      "erte": 2570,
      "adir": 2571,
      "altos": 2572,
      "ases": 2573,
      "reclu": 2574,
      "inv": 2575,
      "inaugu": 2576,
      "entar": 2577,
      "catal": 2578,
      "limi": 2579,
      "liter": 2580,
      "tamp": 2581,
      "tacuba": 2582,
      "conta": 2583,
      "conte": 2584,
      "confron": 2585,
      "rodri": 2586,
      "ridi": 2587,
      "lamiento": 2588,
      "mix": 2589,
      "mitad": 2590,
      "detener": 2591,
      "resguar": 2592,
      "cupu": 2593,
      "exper": 2594,
      "expul": 2595,
      "localidad": 2596,
      "may": 2597,
      "magon": 2598,
      "moder": 2599,
      "mantuvo": 2600,
      "mantener": 2601,
      "suf": 2602,
      "suerte": 2603,
      "bili": 2604,
      "descubier": 2605,
      "promo": 2606,
      "proposi": 2607,
      "propon": 2608,
      "tara": 2609,
      "ficos": 2610,
      "perdon": 2611,
      "estino": 2612,
      "bau": 2613,
      "tencias": 2614,
      "meti": 2615,
      "corral": 2616,
      "obreros": 2617,
      "eja": 2618,
      "conoce": 2619,
      "menegi": 2620,
      "juntas": 2621,
      "trin": 2622,
      "pasar": 2623,
      "turales": 2624,
      "publicos": 2625,
      "politicas": 2626,
      "hermenegi": 2627,
      "compe": 2628,
      "revolucionario": 2629,
      "culto": 2630,
      "veces": 2631,
      "positi": 2632,
      "batallas": 2633,
      "batallon": 2634,
      "moreno": 2635,
      "istieron": 2636,
      "adilla": 2637,
      "legal": 2638,
      "gobernadores": 2639,
      "mediados": 2640,
      "derecha": 2641,
      "haciendo": 2642,
      "hechos": 2643,
      "mentando": 2644,
      "periodico": 2645,
      "celestino": 2646,
      "enemi": 2647,
      "comandadas": 2648,
      "religion": 2649,
      "carrancis": 2650,
      "ideo": 2651,
      "participacion": 2652,
      "enviados": 2653,
      "sesion": 2654,
      "retirada": 2655,
      "intendente": 2656,
      "actualmente": 2657,
      "zapatistas": 2658,
      "negocia": 2659,
      "escobedo": 2660,
      "finalidad": 2661,
      "lleria": 2662,
      "documentos": 2663,
      "funcionarios": 2664,
      "asesinado": 2665,
      "direccion": 2666,
      "permanecio": 2667,
      "colonias": 2668,
      "amigo": 2669,
      "industri": 2670,
      "trono": 2671,
      "designado": 2672,
      "independentista": 2673,
      "regresar": 2674,
      "mujeres": 2675,
      "salvador": 2676,
      "efectivos": 2677,
      "cornisa": 2678,
      "abolicion": 2679,
      "legiti": 2680,
      "guatemala": 2681,
      "monterrey": 2682,
      "universidad": 2683,
      "osorno": 2684,
      "tienen": 2685,
      "logrando": 2686,
      "tampico": 2687,
      "hermenegildo": 2688,
      "ambi": 2689,
      "aconte": 2690,
      "equi": 2691,
      "grado": 2692,
      "jor": 2693,
      "mision": 2694,
      "misti": 2695,
      "nes": 2696,
      "plu": 2697,
      "padilla": 2698,
      "sin": 2699,
      "tento": 2700,
      "von": 2701,
      "xto": 2702,
      "xala": 2703,
      "zu": 2704,
      "zaba": 2705,
      "eso": 2706,
      "este": 2707,
      "esion": 2708,
      "enas": 2709,
      "ense": 2710,
      "ans": 2711,
      "arma": 2712,
      "ciria": 2713,
      "retro": 2714,
      "refu": 2715,
      "redon": 2716,
      "reconocio": 2717,
      "refuerzos": 2718,
      "organo": 2719,
      "difi": 2720,
      "coleg": 2721,
      "lia": 2722,
      "listas": 2723,
      "istio": 2724,
      "conjunto": 2725,
      "contaban": 2726,
      "viva": 2727,
      "deman": 2728,
      "exterior": 2729,
      "puente": 2730,
      "sevilla": 2731,
      "suel": 2732,
      "luz": 2733,
      "destitu": 2734,
      "desembar": 2735,
      "quista": 2736,
      "propor": 2737,
      "progra": 2738,
      "propio": 2739,
      "propuestas": 2740,
      "cartas": 2741,
      "nava": 2742,
      "naciones": 2743,
      "nacimiento": 2744,
      "pavon": 2745,
      "peti": 2746,
      "preso": 2747,
      "bay": 2748,
      "zacion": 2749,
      "trato": 2750,
      "murieron": 2751,
      "gieron": 2752,
      "insurre": 2753,
      "pens": 2754,
      "gobiernos": 2755,
      "univer": 2756,
      "ejercer": 2757,
      "nacionales": 2758,
      "sali": 2759,
      "discu": 2760,
      "interino": 2761,
      "constituy": 2762,
      "hermos": 2763,
      "partio": 2764,
      "particu": 2765,
      "posiciones": 2766,
      "derrotar": 2767,
      "cena": 2768,
      "grave": 2769,
      "peso": 2770,
      "acerca": 2771,
      "oaxaqu": 2772,
      "intentos": 2773,
      "hermana": 2774,
      "tismo": 2775,
      "impuestos": 2776,
      "cuartel": 2777,
      "entrevista": 2778,
      "comercial": 2779,
      "produjo": 2780,
      "edicto": 2781,
      "retiro": 2782,
      "extranjeras": 2783,
      "puntos": 2784,
      "texto": 2785,
      "falta": 2786,
      "instituto": 2787,
      "manifi": 2788,
      "fusilado": 2789,
      "apoyar": 2790,
      "frontera": 2791,
      "deseaba": 2792,
      "cuestiones": 2793,
      "eclesiasticos": 2794,
      "direc": 2795,
      "monarquia": 2796,
      "encabezado": 2797,
      "amigos": 2798,
      "industria": 2799,
      "ascencio": 2800,
      "ofrecio": 2801,
      "ramirez": 2802,
      "europeos": 2803,
      "agrario": 2804,
      "bandera": 2805,
      "trescientos": 2806,
      "manifesta": 2807,
      "abier": 2808,
      "rodriguez": 2809,
      "xalapa": 2810,
      "colegio": 2811,
      "proporcion": 2812,
      "ahora": 2813,
      "bles": 2814,
      "dario": 2815,
      "eto": 2816,
      "epi": 2817,
      "hn": 2818,
      "hing": 2819,
      "ipo": 2820,
      "iva": 2821,
      "icos": 2822,
      "jau": 2823,
      "nar": 2824,
      "ocho": 2825,
      "pia": 2826,
      "pino": 2827,
      "rarse": 2828,
      "zando": 2829,
      "escultura": 2830,
      "ensen": 2831,
      "ancia": 2832,
      "ares": 2833,
      "armada": 2834,
      "armisti": 2835,
      "ciente": 2836,
      "admi": 2837,
      "orle": 2838,
      "investi": 2839,
      "entreg": 2840,
      "dian": 2841,
      "dial": 2842,
      "diez": 2843,
      "cole": 2844,
      "tomado": 2845,
      "conce": 2846,
      "conmemor": 2847,
      "razon": 2848,
      "ritu": 2849,
      "labor": 2850,
      "midad": 2851,
      "decia": 2852,
      "resid": 2853,
      "respuesta": 2854,
      "cub": 2855,
      "gusta": 2856,
      "exclu": 2857,
      "explo": 2858,
      "local": 2859,
      "sever": 2860,
      "sectores": 2861,
      "juz": 2862,
      "mantes": 2863,
      "ables": 2864,
      "supl": 2865,
      "sufri": 2866,
      "lucas": 2867,
      "elas": 2868,
      "mari": 2869,
      "simbo": 2870,
      "deser": 2871,
      "descen": 2872,
      "protagon": 2873,
      "tarlo": 2874,
      "fili": 2875,
      "fiel": 2876,
      "pedir": 2877,
      "perseguido": 2878,
      "presos": 2879,
      "presbi": 2880,
      "baja": 2881,
      "zaca": 2882,
      "vacion": 2883,
      "espada": 2884,
      "huyo": 2885,
      "cep": 2886,
      "izar": 2887,
      "izucar": 2888,
      "obtener": 2889,
      "muros": 2890,
      "portu": 2891,
      "john": 2892,
      "crecimiento": 2893,
      "chapul": 2894,
      "saltillo": 2895,
      "impidio": 2896,
      "dispar": 2897,
      "discurso": 2898,
      "intern": 2899,
      "internacional": 2900,
      "incidente": 2901,
      "neo": 2902,
      "empren": 2903,
      "recibido": 2904,
      "artilleria": 2905,
      "dona": 2906,
      "culmin": 2907,
      "valor": 2908,
      "indios": 2909,
      "inicial": 2910,
      "saque": 2911,
      "rendicion": 2912,
      "regis": 2913,
      "regiones": 2914,
      "economicos": 2915,
      "historico": 2916,
      "llegando": 2917,
      "maximo": 2918,
      "puertas": 2919,
      "realizaron": 2920,
      "muerto": 2921,
      "zonas": 2922,
      "maticas": 2923,
      "ejecutado": 2924,
      "levantamientos": 2925,
      "construir": 2926,
      "idea": 2927,
      "estudi": 2928,
      "elite": 2929,
      "linea": 2930,
      "entregar": 2931,
      "virreinales": 2932,
      "obliga": 2933,
      "urb": 2934,
      "capturar": 2935,
      "prisioneros": 2936,
      "indigena": 2937,
      "continuar": 2938,
      "fusilamiento": 2939,
      "triunf": 2940,
      "llevaron": 2941,
      "acus": 2942,
      "versario": 2943,
      "aniversario": 2944,
      "originalmente": 2945,
      "restable": 2946,
      "pacificacion": 2947,
      "comitiva": 2948,
      "monarca": 2949,
      "inversionistas": 2950,
      "figura": 2951,
      "religiosos": 2952,
      "reformas": 2953,
      "sorpren": 2954,
      "aleman": 2955,
      "asumio": 2956,
      "utili": 2957,
      "conciliacion": 2958,
      "moneda": 2959,
      "numeros": 2960,
      "alvaro": 2961,
      "fortaleza": 2962,
      "izquierda": 2963,
      "empresarios": 2964,
      "ceremonia": 2965,
      "gobernacion": 2966,
      "semanas": 2967,
      "cientificos": 2968,
      "chiapas": 2969,
      "confianza": 2970,
      "democra": 2971,
      "gubernativa": 2972,
      "ejemplo": 2973,
      "wilson": 2974,
      "conspiradores": 2975,
      "tacubaya": 2976,
      "experi": 2977,
      "proposito": 2978,
      "armamento": 2979,
      "ciriaco": 2980,
      "insurreccion": 2981,
      "manifiesto": 2982,
      "armisticio": 2983,
      "orleans": 2984,
      "chapultepec": 2985,
      "20": 2986,
      "aqui": 2987,
      "ampli": 2988,
      "atribu": 2989,
      "bona": 2990,
      "eas": 2991,
      "echa": 2992,
      "evan": 2993,
      "gro": 2994,
      "icia": 2995,
      "jado": 2996,
      "pru": 2997,
      "tano": 2998,
      "was": 2999
    },
    "merges": [
      [
        "e",
        "s"
      ],
      [
        "o",
        "n"
      ],
      [
        "e",
        "r"
      ],
      [
        "e",
        "n"
      ],
      [
        "a",
        "n"
      ],
      [
        "a",
        "r"
      ],
      [
        "c",
        "i"
      ],
      [
        "o",
        "s"
      ],
      [
        "a",
        "d"
      ],
      [
        "a",
        "l"
      ],
      [
        "a",
        "s"
      ],
      [
        "r",
        "e"
      ],
      [
        "o",
        "r"
      ],
      [
        "i",
        "n"
      ],
      [
        "en",
        "t"
      ],
      [
        "t",
        "i"
      ],
      [
        "d",
        "i"
      ],
      [
        "c",
        "o"
      ],
      [
        "c",
        "a"
      ],
      [
        "ci",
        "on"
      ],
      [
        "l",
        "i"
      ],
      [
        "t",
        "a"
      ],
      [
        "t",
        "o"
      ],
      [
        "i",
        "s"
      ],
      [
        "c",
        "on"
      ],
      [
        "r",
        "o"
      ],
      [
        "d",
        "o"
      ],
      [
        "r",
        "a"
      ],
      [
        "r",
        "i"
      ],
      [
        "l",
        "a"
      ],
      [
        "l",
        "e"
      ],
      [
        "t",
        "e"
      ],
      [
        "m",
        "i"
      ],
      [
        "v",
        "i"
      ],
      [
        "ad",
        "o"
      ],
      [
        "u",
        "n"
      ],
      [
        "d",
        "e"
      ],
      [
        "r",
        "es"
      ],
      [
        "t",
        "u"
      ],
      [
        "g",
        "o"
      ],
      [
        "c",
        "u"
      ],
      [
        "p",
        "o"
      ],
      [
        "g",
        "u"
      ],
      [
        "ent",
        "e"
      ],
      [
        "i",
        "d"
      ],
      [
        "e",
        "x"
      ],
      [
        "m",
        "b"
      ],
      [
        "l",
        "o"
      ],
      [
        "p",
        "u"
      ],
      [
        "m",
        "a"
      ],
      [
        "i",
        "o"
      ],
      [
        "n",
        "o"
      ],
      [
        "i",
        "a"
      ],
      [
        "s",
        "e"
      ],
      [
        "m",
        "o"
      ],
      [
        "c",
        "h"
      ],
      [
        "e",
        "z"
      ],
      [
        "j",
        "u"
      ],
      [
        "m",
        "an"
      ],
      [
        "a",
        "b"
      ],
      [
        "s",
        "u"
      ],
      [
        "v",
        "o"
      ],
      [
        "l",
        "u"
      ],
      [
        "e",
        "l"
      ],
      [
        "a",
        "c"
      ],
      [
        "m",
        "ar"
      ],
      [
        "r",
        "an"
      ],
      [
        "m",
        "p"
      ],
      [
        "d",
        "ad"
      ],
      [
        "ci",
        "a"
      ],
      [
        "s",
        "i"
      ],
      [
        "t",
        "er"
      ],
      [
        "b",
        "i"
      ],
      [
        "d",
        "es"
      ],
      [
        "ex",
        "i"
      ],
      [
        "q",
        "u"
      ],
      [
        "p",
        "ro"
      ],
      [
        "c",
        "ar"
      ],
      [
        "t",
        "ar"
      ],
      [
        "f",
        "i"
      ],
      [
        "m",
        "exi"
      ],
      [
        "n",
        "a"
      ],
      [
        "an",
        "o"
      ],
      [
        "p",
        "a"
      ],
      [
        "s",
        "o"
      ],
      [
        "ad",
        "os"
      ],
      [
        "p",
        "ar"
      ],
      [
        "r",
        "u"
      ],
      [
        "an",
        "a"
      ],
      [
        "p",
        "e"
      ],
      [
        "ent",
        "o"
      ],
      [
        "p",
        "er"
      ],
      [
        "p",
        "i"
      ],
      [
        "di",
        "a"
      ],
      [
        "d",
        "er"
      ],
      [
        "es",
        "t"
      ],
      [
        "p",
        "res"
      ],
      [
        "b",
        "a"
      ],
      [
        "m",
        "as"
      ],
      [
        "ci",
        "o"
      ],
      [
        "d",
        "a"
      ],
      [
        "t",
        "or"
      ],
      [
        "ad",
        "a"
      ],
      [
        "e",
        "mb"
      ],
      [
        "al",
        "es"
      ],
      [
        "er",
        "o"
      ],
      [
        "z",
        "a"
      ],
      [
        "t",
        "ra"
      ],
      [
        "i",
        "on"
      ],
      [
        "t",
        "en"
      ],
      [
        "l",
        "os"
      ],
      [
        "m",
        "ente"
      ],
      [
        "ar",
        "on"
      ],
      [
        "s",
        "an"
      ],
      [
        "m",
        "e"
      ],
      [
        "mexi",
        "co"
      ],
      [
        "con",
        "s"
      ],
      [
        "m",
        "in"
      ],
      [
        "t",
        "as"
      ],
      [
        "j",
        "os"
      ],
      [
        "m",
        "er"
      ],
      [
        "v",
        "a"
      ],
      [
        "t",
        "an"
      ],
      [
        "c",
        "or"
      ],
      [
        "t",
        "al"
      ],
      [
        "es",
        "p"
      ],
      [
        "g",
        "ar"
      ],
      [
        "er",
        "on"
      ],
      [
        "h",
        "u"
      ],
      [
        "b",
        "er"
      ],
      [
        "c",
        "e"
      ],
      [
        "c",
        "as"
      ],
      [
        "f",
        "e"
      ],
      [
        "f",
        "or"
      ],
      [
        "i",
        "z"
      ],
      [
        "c",
        "es"
      ],
      [
        "o",
        "b"
      ],
      [
        "su",
        "r"
      ],
      [
        "m",
        "u"
      ],
      [
        "d",
        "en"
      ],
      [
        "di",
        "o"
      ],
      [
        "t",
        "es"
      ],
      [
        "u",
        "dad"
      ],
      [
        "ar",
        "ez"
      ],
      [
        "e",
        "j"
      ],
      [
        "n",
        "u"
      ],
      [
        "ci",
        "udad"
      ],
      [
        "cion",
        "es"
      ],
      [
        "g",
        "en"
      ],
      [
        "jos",
        "e"
      ],
      [
        "dia",
        "z"
      ],
      [
        "v",
        "er"
      ],
      [
        "t",
        "os"
      ],
      [
        "con",
        "o"
      ],
      [
        "t",
        "ro"
      ],
      [
        "ju",
        "arez"
      ],
      [
        "l",
        "es"
      ],
      [
        "c",
        "an"
      ],
      [
        "f",
        "u"
      ],
      [
        "mi",
        "li"
      ],
      [
        "c",
        "al"
      ],
      [
        "mi",
        "ento"
      ],
      [
        "p",
        "os"
      ],
      [
        "p",
        "or"
      ],
      [
        "ent",
        "es"
      ],
      [
        "d",
        "u"
      ],
      [
        "re",
        "al"
      ],
      [
        "ad",
        "or"
      ],
      [
        "l",
        "an"
      ],
      [
        "ti",
        "tu"
      ],
      [
        "j",
        "o"
      ],
      [
        "g",
        "i"
      ],
      [
        "l",
        "ar"
      ],
      [
        "f",
        "ran"
      ],
      [
        "l",
        "la"
      ],
      [
        "c",
        "er"
      ],
      [
        "l",
        "le"
      ],
      [
        "nu",
        "e"
      ],
      [
        "m",
        "en"
      ],
      [
        "bi",
        "er"
      ],
      [
        "pres",
        "id"
      ],
      [
        "in",
        "sur"
      ],
      [
        "j",
        "un"
      ],
      [
        "t",
        "r"
      ],
      [
        "m",
        "on"
      ],
      [
        "emb",
        "re"
      ],
      [
        "pu",
        "es"
      ],
      [
        "c",
        "os"
      ],
      [
        "p",
        "en"
      ],
      [
        "i",
        "g"
      ],
      [
        "ri",
        "o"
      ],
      [
        "go",
        "bier"
      ],
      [
        "p",
        "r"
      ],
      [
        "an",
        "do"
      ],
      [
        "al",
        "a"
      ],
      [
        "c",
        "re"
      ],
      [
        "gobier",
        "no"
      ],
      [
        "ca",
        "pi"
      ],
      [
        "y",
        "o"
      ],
      [
        "p",
        "as"
      ],
      [
        "mo",
        "re"
      ],
      [
        "insur",
        "g"
      ],
      [
        "l",
        "as"
      ],
      [
        "f",
        "in"
      ],
      [
        "un",
        "i"
      ],
      [
        "more",
        "los"
      ],
      [
        "a",
        "u"
      ],
      [
        "t",
        "ri"
      ],
      [
        "a",
        "cion"
      ],
      [
        "p",
        "ri"
      ],
      [
        "z",
        "o"
      ],
      [
        "b",
        "li"
      ],
      [
        "po",
        "li"
      ],
      [
        "ch",
        "o"
      ],
      [
        "ej",
        "er"
      ],
      [
        "na",
        "cion"
      ],
      [
        "gu",
        "er"
      ],
      [
        "tu",
        "r"
      ],
      [
        "fu",
        "er"
      ],
      [
        "ab",
        "a"
      ],
      [
        "ent",
        "os"
      ],
      [
        "ch",
        "a"
      ],
      [
        "e",
        "b"
      ],
      [
        "v",
        "en"
      ],
      [
        "t",
        "in"
      ],
      [
        "f",
        "a"
      ],
      [
        "p",
        "re"
      ],
      [
        "f",
        "er"
      ],
      [
        "s",
        "al"
      ],
      [
        "ci",
        "to"
      ],
      [
        "h",
        "i"
      ],
      [
        "es",
        "ta"
      ],
      [
        "id",
        "ad"
      ],
      [
        "nue",
        "va"
      ],
      [
        "en",
        "cia"
      ],
      [
        "r",
        "os"
      ],
      [
        "g",
        "res"
      ],
      [
        "vi",
        "r"
      ],
      [
        "or",
        "den"
      ],
      [
        "presid",
        "ente"
      ],
      [
        "h",
        "id"
      ],
      [
        "u",
        "s"
      ],
      [
        "y",
        "a"
      ],
      [
        "an",
        "os"
      ],
      [
        "al",
        "go"
      ],
      [
        "is",
        "ta"
      ],
      [
        "i",
        "mp"
      ],
      [
        "hid",
        "algo"
      ],
      [
        "gu",
        "i"
      ],
      [
        "pa",
        "is"
      ],
      [
        "er",
        "a"
      ],
      [
        "b",
        "le"
      ],
      [
        "g",
        "ran"
      ],
      [
        "pu",
        "bli"
      ],
      [
        "di",
        "s"
      ],
      [
        "in",
        "ter"
      ],
      [
        "is",
        "tas"
      ],
      [
        "mar",
        "ia"
      ],
      [
        "est",
        "ado"
      ],
      [
        "re",
        "y"
      ],
      [
        "poli",
        "ti"
      ],
      [
        "pu",
        "eb"
      ],
      [
        "esp",
        "ana"
      ],
      [
        "h",
        "o"
      ],
      [
        "m",
        "ad"
      ],
      [
        "in",
        "ci"
      ],
      [
        "cons",
        "titu"
      ],
      [
        "ejer",
        "cito"
      ],
      [
        "e",
        "le"
      ],
      [
        "en",
        "do"
      ],
      [
        "gen",
        "er"
      ],
      [
        "des",
        "pues"
      ],
      [
        "j",
        "a"
      ],
      [
        "i",
        "as"
      ],
      [
        "lo",
        "g"
      ],
      [
        "l",
        "ado"
      ],
      [
        "qu",
        "e"
      ],
      [
        "b",
        "an"
      ],
      [
        "por",
        "fi"
      ],
      [
        "n",
        "e"
      ],
      [
        "a",
        "g"
      ],
      [
        "i",
        "os"
      ],
      [
        "h",
        "er"
      ],
      [
        "pri",
        "mer"
      ],
      [
        "t",
        "on"
      ],
      [
        "u",
        "el"
      ],
      [
        "ci",
        "s"
      ],
      [
        "or",
        "es"
      ],
      [
        "co",
        "mp"
      ],
      [
        "mexi",
        "c"
      ],
      [
        "mili",
        "tar"
      ],
      [
        "ju",
        "an"
      ],
      [
        "insurg",
        "entes"
      ],
      [
        "par",
        "ti"
      ],
      [
        "par",
        "te"
      ],
      [
        "a",
        "ca"
      ],
      [
        "j",
        "e"
      ],
      [
        "un",
        "id"
      ],
      [
        "t",
        "ado"
      ],
      [
        "ar",
        "a"
      ],
      [
        "is",
        "ion"
      ],
      [
        "vo",
        "lu"
      ],
      [
        "d",
        "os"
      ],
      [
        "m",
        "po"
      ],
      [
        "ci",
        "al"
      ],
      [
        "c",
        "cion"
      ],
      [
        "constitu",
        "cion"
      ],
      [
        "gres",
        "o"
      ],
      [
        "ad",
        "as"
      ],
      [
        "a",
        "to"
      ],
      [
        "a",
        "po"
      ],
      [
        "m",
        "ento"
      ],
      [
        "nacion",
        "al"
      ],
      [
        "esp",
        "ano"
      ],
      [
        "li",
        "ber"
      ],
      [
        "x",
        "i"
      ],
      [
        "as",
        "i"
      ],
      [
        "in",
        "s"
      ],
      [
        "gener",
        "al"
      ],
      [
        "g",
        "an"
      ],
      [
        "ru",
        "z"
      ],
      [
        "g",
        "on"
      ],
      [
        "e",
        "mp"
      ],
      [
        "ar",
        "io"
      ],
      [
        "re",
        "ci"
      ],
      [
        "ab",
        "an"
      ],
      [
        "re",
        "volu"
      ],
      [
        "b",
        "r"
      ],
      [
        "ch",
        "i"
      ],
      [
        "ar",
        "ti"
      ],
      [
        "ti",
        "o"
      ],
      [
        "cor",
        "on"
      ],
      [
        "revolu",
        "cion"
      ],
      [
        "mb",
        "i"
      ],
      [
        "mer",
        "i"
      ],
      [
        "v",
        "an"
      ],
      [
        "est",
        "ados"
      ],
      [
        "fran",
        "cis"
      ],
      [
        "d",
        "on"
      ],
      [
        "f",
        "r"
      ],
      [
        "de",
        "pen"
      ],
      [
        "cu",
        "l"
      ],
      [
        "man",
        "uel"
      ],
      [
        "g",
        "a"
      ],
      [
        "v",
        "e"
      ],
      [
        "tu",
        "ra"
      ],
      [
        "pr",
        "inci"
      ],
      [
        "b",
        "re"
      ],
      [
        "p",
        "lan"
      ],
      [
        "in",
        "o"
      ],
      [
        "francis",
        "co"
      ],
      [
        "c",
        "to"
      ],
      [
        "l",
        "er"
      ],
      [
        "y",
        "or"
      ],
      [
        "no",
        "mb"
      ],
      [
        "h",
        "is"
      ],
      [
        "v",
        "al"
      ],
      [
        "in",
        "di"
      ],
      [
        "cono",
        "ci"
      ],
      [
        "z",
        "as"
      ],
      [
        "hu",
        "a"
      ],
      [
        "ca",
        "b"
      ],
      [
        "for",
        "ma"
      ],
      [
        "a",
        "meri"
      ],
      [
        "in",
        "i"
      ],
      [
        "si",
        "on"
      ],
      [
        "na",
        "cio"
      ],
      [
        "pos",
        "i"
      ],
      [
        "jun",
        "ta"
      ],
      [
        "l",
        "lo"
      ],
      [
        "s",
        "on"
      ],
      [
        "u",
        "l"
      ],
      [
        "f",
        "o"
      ],
      [
        "t",
        "ados"
      ],
      [
        "al",
        "mente"
      ],
      [
        "con",
        "tra"
      ],
      [
        "vi",
        "o"
      ],
      [
        "guer",
        "ra"
      ],
      [
        "in",
        "depen"
      ],
      [
        "der",
        "ro"
      ],
      [
        "i",
        "r"
      ],
      [
        "i",
        "or"
      ],
      [
        "ba",
        "tal"
      ],
      [
        "la",
        "cion"
      ],
      [
        "ad",
        "e"
      ],
      [
        "ma",
        "yor"
      ],
      [
        "qu",
        "i"
      ],
      [
        "c",
        "en"
      ],
      [
        "p",
        "an"
      ],
      [
        "s",
        "a"
      ],
      [
        "an",
        "ton"
      ],
      [
        "min",
        "is"
      ],
      [
        "den",
        "cia"
      ],
      [
        "ho",
        "mb"
      ],
      [
        "ci",
        "as"
      ],
      [
        "li",
        "o"
      ],
      [
        "id",
        "a"
      ],
      [
        "r",
        "al"
      ],
      [
        "m",
        "or"
      ],
      [
        "le",
        "y"
      ],
      [
        "fran",
        "ces"
      ],
      [
        "c",
        "ri"
      ],
      [
        "c",
        "tor"
      ],
      [
        "g",
        "ra"
      ],
      [
        "an",
        "tes"
      ],
      [
        "ta",
        "mbi"
      ],
      [
        "de",
        "ci"
      ],
      [
        "tambi",
        "en"
      ],
      [
        "c",
        "la"
      ],
      [
        "a",
        "y"
      ],
      [
        "b",
        "e"
      ],
      [
        "co",
        "m"
      ],
      [
        "ab",
        "ri"
      ],
      [
        "d",
        "as"
      ],
      [
        "r",
        "en"
      ],
      [
        "anton",
        "io"
      ],
      [
        "r",
        "as"
      ],
      [
        "emb",
        "ar"
      ],
      [
        "p",
        "la"
      ],
      [
        "iz",
        "o"
      ],
      [
        "pueb",
        "la"
      ],
      [
        "ten",
        "i"
      ],
      [
        "ador",
        "es"
      ],
      [
        "ig",
        "nacio"
      ],
      [
        "b",
        "io"
      ],
      [
        "c",
        "lu"
      ],
      [
        "ti",
        "vo"
      ],
      [
        "gu",
        "el"
      ],
      [
        "c",
        "tu"
      ],
      [
        "g",
        "ru"
      ],
      [
        "i",
        "co"
      ],
      [
        "mo",
        "vi"
      ],
      [
        "coron",
        "el"
      ],
      [
        "re",
        "g"
      ],
      [
        "esta",
        "ble"
      ],
      [
        "f",
        "un"
      ],
      [
        "l",
        "en"
      ],
      [
        "is",
        "mo"
      ],
      [
        "mi",
        "guel"
      ],
      [
        "m",
        "os"
      ],
      [
        "o",
        "a"
      ],
      [
        "p",
        "on"
      ],
      [
        "cu",
        "er"
      ],
      [
        "arti",
        "cu"
      ],
      [
        "e",
        "go"
      ],
      [
        "e",
        "mpo"
      ],
      [
        "tu",
        "vo"
      ],
      [
        "se",
        "p"
      ],
      [
        "lu",
        "gar"
      ],
      [
        "tro",
        "pas"
      ],
      [
        "an",
        "ti"
      ],
      [
        "co",
        "men"
      ],
      [
        "man",
        "do"
      ],
      [
        "porfi",
        "rio"
      ],
      [
        "unid",
        "os"
      ],
      [
        "p",
        "ala"
      ],
      [
        "an",
        "te"
      ],
      [
        "po",
        "der"
      ],
      [
        "princi",
        "p"
      ],
      [
        "homb",
        "res"
      ],
      [
        "ar",
        "se"
      ],
      [
        "con",
        "greso"
      ],
      [
        "ti",
        "empo"
      ],
      [
        "ca",
        "mp"
      ],
      [
        "p",
        "es"
      ],
      [
        "ma",
        "yo"
      ],
      [
        "m",
        "ado"
      ],
      [
        "ri",
        "g"
      ],
      [
        "ber",
        "n"
      ],
      [
        "fuer",
        "zas"
      ],
      [
        "t",
        "ru"
      ],
      [
        "ob",
        "is"
      ],
      [
        "sep",
        "ti"
      ],
      [
        "m",
        "es"
      ],
      [
        "n",
        "or"
      ],
      [
        "di",
        "ci"
      ],
      [
        "ac",
        "er"
      ],
      [
        "capi",
        "tal"
      ],
      [
        "oa",
        "x"
      ],
      [
        "septi",
        "embre"
      ],
      [
        "pres",
        "ent"
      ],
      [
        "c",
        "ent"
      ],
      [
        "e",
        "cono"
      ],
      [
        "h",
        "a"
      ],
      [
        "d",
        "ro"
      ],
      [
        "v",
        "ar"
      ],
      [
        "on",
        "es"
      ],
      [
        "ac",
        "ruz"
      ],
      [
        "ver",
        "acruz"
      ],
      [
        "econo",
        "mi"
      ],
      [
        "b",
        "ar"
      ],
      [
        "i",
        "ta"
      ],
      [
        "batal",
        "la"
      ],
      [
        "b",
        "u"
      ],
      [
        "is",
        "ti"
      ],
      [
        "ra",
        "y"
      ],
      [
        "vi",
        "embre"
      ],
      [
        "no",
        "viembre"
      ],
      [
        "politi",
        "ca"
      ],
      [
        "r",
        "ado"
      ],
      [
        "t",
        "ad"
      ],
      [
        "ca",
        "cion"
      ],
      [
        "ca",
        "te"
      ],
      [
        "s",
        "er"
      ],
      [
        "ad",
        "i"
      ],
      [
        "po",
        "b"
      ],
      [
        "di",
        "as"
      ],
      [
        "his",
        "tor"
      ],
      [
        "di",
        "pu"
      ],
      [
        "lu",
        "is"
      ],
      [
        "so",
        "l"
      ],
      [
        "b",
        "en"
      ],
      [
        "or",
        "gan"
      ],
      [
        "dad",
        "os"
      ],
      [
        "d",
        "ar"
      ],
      [
        "con",
        "se"
      ],
      [
        "si",
        "g"
      ],
      [
        "i",
        "i"
      ],
      [
        "es",
        "ti"
      ],
      [
        "cu",
        "r"
      ],
      [
        "san",
        "ta"
      ],
      [
        "lle",
        "g"
      ],
      [
        "tr",
        "as"
      ],
      [
        "oax",
        "aca"
      ],
      [
        "ti",
        "va"
      ],
      [
        "pe",
        "dro"
      ],
      [
        "mad",
        "ero"
      ],
      [
        "indepen",
        "dencia"
      ],
      [
        "movi",
        "miento"
      ],
      [
        "p",
        "ez"
      ],
      [
        "t",
        "la"
      ],
      [
        "real",
        "istas"
      ],
      [
        "t",
        "ran"
      ],
      [
        "v",
        "os"
      ],
      [
        "z",
        "al"
      ],
      [
        "in",
        "a"
      ],
      [
        "can",
        "os"
      ],
      [
        "publi",
        "ca"
      ],
      [
        "log",
        "ro"
      ],
      [
        "embar",
        "go"
      ],
      [
        "mi",
        "emb"
      ],
      [
        "insurg",
        "ente"
      ],
      [
        "mexic",
        "ano"
      ],
      [
        "ray",
        "on"
      ],
      [
        "f",
        "en"
      ],
      [
        "v",
        "as"
      ],
      [
        "le",
        "g"
      ],
      [
        "lo",
        "pez"
      ],
      [
        "i",
        "tur"
      ],
      [
        "fe",
        "der"
      ],
      [
        "mexic",
        "ana"
      ],
      [
        "gon",
        "zal"
      ],
      [
        "articu",
        "lo"
      ],
      [
        "dici",
        "embre"
      ],
      [
        "si",
        "gui"
      ],
      [
        "a",
        "ta"
      ],
      [
        "vi",
        "lla"
      ],
      [
        "go",
        "bern"
      ],
      [
        "bi",
        "do"
      ],
      [
        "per",
        "son"
      ],
      [
        "me",
        "di"
      ],
      [
        "tan",
        "to"
      ],
      [
        "v",
        "ez"
      ],
      [
        "le",
        "on"
      ],
      [
        "obis",
        "po"
      ],
      [
        "o",
        "ctu"
      ],
      [
        "r",
        "ar"
      ],
      [
        "tar",
        "de"
      ],
      [
        "der",
        "e"
      ],
      [
        "ha",
        "ci"
      ],
      [
        "octu",
        "bre"
      ],
      [
        "h",
        "e"
      ],
      [
        "fer",
        "n"
      ],
      [
        "miemb",
        "ros"
      ],
      [
        "gonzal",
        "ez"
      ],
      [
        "z",
        "ar"
      ],
      [
        "ar",
        "ios"
      ],
      [
        "pu",
        "l"
      ],
      [
        "ju",
        "lio"
      ],
      [
        "j",
        "es"
      ],
      [
        "er",
        "os"
      ],
      [
        "fe",
        "li"
      ],
      [
        "b",
        "as"
      ],
      [
        "r",
        "is"
      ],
      [
        "in",
        "t"
      ],
      [
        "to",
        "mar"
      ],
      [
        "pro",
        "v"
      ],
      [
        "abri",
        "l"
      ],
      [
        "a",
        "gu"
      ],
      [
        "c",
        "ciones"
      ],
      [
        "m",
        "ada"
      ],
      [
        "os",
        "a"
      ],
      [
        "mi",
        "entos"
      ],
      [
        "gu",
        "ad"
      ],
      [
        "ma",
        "xi"
      ],
      [
        "ju",
        "s"
      ],
      [
        "m",
        "ent"
      ],
      [
        "en",
        "contra"
      ],
      [
        "re",
        "present"
      ],
      [
        "ca",
        "p"
      ],
      [
        "de",
        "c"
      ],
      [
        "de",
        "fen"
      ],
      [
        "ter",
        "ior"
      ],
      [
        "fe",
        "br"
      ],
      [
        "pu",
        "er"
      ],
      [
        "ter",
        "min"
      ],
      [
        "mili",
        "ano"
      ],
      [
        "vir",
        "rey"
      ],
      [
        "comp",
        "an"
      ],
      [
        "febr",
        "ero"
      ],
      [
        "pe",
        "c"
      ],
      [
        "ade",
        "mas"
      ],
      [
        "vi",
        "l"
      ],
      [
        "ch",
        "os"
      ],
      [
        "per",
        "io"
      ],
      [
        "cal",
        "le"
      ],
      [
        "imp",
        "or"
      ],
      [
        "primer",
        "a"
      ],
      [
        "b",
        "ra"
      ],
      [
        "b",
        "us"
      ],
      [
        "r",
        "ero"
      ],
      [
        "jun",
        "to"
      ],
      [
        "her",
        "man"
      ],
      [
        "ul",
        "ti"
      ],
      [
        "e",
        "dad"
      ],
      [
        "g",
        "os"
      ],
      [
        "al",
        "len"
      ],
      [
        "real",
        "iz"
      ],
      [
        "militar",
        "es"
      ],
      [
        "apo",
        "yo"
      ],
      [
        "nor",
        "te"
      ],
      [
        "allen",
        "de"
      ],
      [
        "de",
        "bido"
      ],
      [
        "mu",
        "er"
      ],
      [
        "jun",
        "io"
      ],
      [
        "fa",
        "mili"
      ],
      [
        "sig",
        "lo"
      ],
      [
        "e",
        "cu"
      ],
      [
        "z",
        "on"
      ],
      [
        "z",
        "ara"
      ],
      [
        "ent",
        "on"
      ],
      [
        "lu",
        "ego"
      ],
      [
        "me",
        "dio"
      ],
      [
        "d",
        "ado"
      ],
      [
        "m",
        "ero"
      ],
      [
        "ten",
        "er"
      ],
      [
        "ig",
        "les"
      ],
      [
        "enton",
        "ces"
      ],
      [
        "c",
        "ado"
      ],
      [
        "i",
        "an"
      ],
      [
        "i",
        "gu"
      ],
      [
        "l",
        "on"
      ],
      [
        "s",
        "en"
      ],
      [
        "en",
        "car"
      ],
      [
        "cu",
        "ent"
      ],
      [
        "se",
        "cre"
      ],
      [
        "fi",
        "r"
      ],
      [
        "ten",
        "ia"
      ],
      [
        "gru",
        "po"
      ],
      [
        "v",
        "is"
      ],
      [
        "en",
        "da"
      ],
      [
        "or",
        "a"
      ],
      [
        "dipu",
        "tados"
      ],
      [
        "itur",
        "bi"
      ],
      [
        "impor",
        "tan"
      ],
      [
        "r",
        "aron"
      ],
      [
        "ti",
        "s"
      ],
      [
        "di",
        "eron"
      ],
      [
        "un",
        "ion"
      ],
      [
        "si",
        "tu"
      ],
      [
        "pro",
        "cla"
      ],
      [
        "calle",
        "ja"
      ],
      [
        "b",
        "o"
      ],
      [
        "c",
        "el"
      ],
      [
        "di",
        "da"
      ],
      [
        "di",
        "rig"
      ],
      [
        "con",
        "tin"
      ],
      [
        "ma",
        "ti"
      ],
      [
        "su",
        "s"
      ],
      [
        "ba",
        "j"
      ],
      [
        "cons",
        "er"
      ],
      [
        "au",
        "tor"
      ],
      [
        "iturbi",
        "de"
      ],
      [
        "b",
        "or"
      ],
      [
        "c",
        "las"
      ],
      [
        "i",
        "ano"
      ],
      [
        "n",
        "i"
      ],
      [
        "o",
        "fi"
      ],
      [
        "p",
        "in"
      ],
      [
        "en",
        "e"
      ],
      [
        "al",
        "u"
      ],
      [
        "ej",
        "ecu"
      ],
      [
        "real",
        "ista"
      ],
      [
        "fern",
        "ando"
      ],
      [
        "en",
        "o"
      ],
      [
        "li",
        "dad"
      ],
      [
        "do",
        "min"
      ],
      [
        "vi",
        "i"
      ],
      [
        "ameri",
        "ca"
      ],
      [
        "cate",
        "d"
      ],
      [
        "sol",
        "dados"
      ],
      [
        "a",
        "van"
      ],
      [
        "en",
        "ero"
      ],
      [
        "vi",
        "ctor"
      ],
      [
        "fin",
        "almente"
      ],
      [
        "pob",
        "lacion"
      ],
      [
        "maxi",
        "miliano"
      ],
      [
        "l",
        "l"
      ],
      [
        "le",
        "van"
      ],
      [
        "go",
        "za"
      ],
      [
        "ac",
        "an"
      ],
      [
        "h",
        "ab"
      ],
      [
        "h",
        "izo"
      ],
      [
        "i",
        "do"
      ],
      [
        "co",
        "man"
      ],
      [
        "gu",
        "ana"
      ],
      [
        "nue",
        "vo"
      ],
      [
        "guana",
        "ju"
      ],
      [
        "r",
        "ada"
      ],
      [
        "es",
        "cri"
      ],
      [
        "re",
        "in"
      ],
      [
        "ri",
        "a"
      ],
      [
        "vi",
        "a"
      ],
      [
        "tar",
        "on"
      ],
      [
        "guer",
        "rero"
      ],
      [
        "orden",
        "o"
      ],
      [
        "guanaju",
        "ato"
      ],
      [
        "g",
        "ado"
      ],
      [
        "i",
        "ca"
      ],
      [
        "qu",
        "in"
      ],
      [
        "qu",
        "is"
      ],
      [
        "espano",
        "les"
      ],
      [
        "zara",
        "goza"
      ],
      [
        "c",
        "ris"
      ],
      [
        "re",
        "li"
      ],
      [
        "in",
        "clu"
      ],
      [
        "ti",
        "er"
      ],
      [
        "ta",
        "ba"
      ],
      [
        "vo",
        "l"
      ],
      [
        "capi",
        "tan"
      ],
      [
        "pueb",
        "lo"
      ],
      [
        "je",
        "fe"
      ],
      [
        "chi",
        "hua"
      ],
      [
        "histor",
        "ia"
      ],
      [
        "cated",
        "ral"
      ],
      [
        "f",
        "es"
      ],
      [
        "g",
        "as"
      ],
      [
        "ti",
        "cia"
      ],
      [
        "mar",
        "zo"
      ],
      [
        "qu",
        "er"
      ],
      [
        "car",
        "ran"
      ],
      [
        "ion",
        "es"
      ],
      [
        "pues",
        "to"
      ],
      [
        "famili",
        "a"
      ],
      [
        "e",
        "p"
      ],
      [
        "i",
        "m"
      ],
      [
        "s",
        "os"
      ],
      [
        "co",
        "mb"
      ],
      [
        "cu",
        "ar"
      ],
      [
        "cons",
        "id"
      ],
      [
        "cons",
        "tru"
      ],
      [
        "ele",
        "cciones"
      ],
      [
        "b",
        "el"
      ],
      [
        "i",
        "de"
      ],
      [
        "i",
        "za"
      ],
      [
        "es",
        "tu"
      ],
      [
        "ar",
        "mas"
      ],
      [
        "in",
        "f"
      ],
      [
        "vi",
        "eron"
      ],
      [
        "de",
        "cre"
      ],
      [
        "hu",
        "er"
      ],
      [
        "parti",
        "ci"
      ],
      [
        "pala",
        "fo"
      ],
      [
        "ben",
        "i"
      ],
      [
        "chihua",
        "hua"
      ],
      [
        "b",
        "al"
      ],
      [
        "e",
        "li"
      ],
      [
        "g",
        "al"
      ],
      [
        "l",
        "in"
      ],
      [
        "in",
        "du"
      ],
      [
        "ent",
        "re"
      ],
      [
        "co",
        "mer"
      ],
      [
        "ca",
        "us"
      ],
      [
        "pro",
        "du"
      ],
      [
        "imp",
        "er"
      ],
      [
        "espano",
        "l"
      ],
      [
        "secre",
        "tar"
      ],
      [
        "e",
        "di"
      ],
      [
        "o",
        "cu"
      ],
      [
        "ent",
        "ro"
      ],
      [
        "ch",
        "e"
      ],
      [
        "per",
        "mi"
      ],
      [
        "me",
        "dia"
      ],
      [
        "presid",
        "encia"
      ],
      [
        "cab",
        "ez"
      ],
      [
        "ay",
        "u"
      ],
      [
        "anti",
        "gu"
      ],
      [
        "igles",
        "ia"
      ],
      [
        "c",
        "ruz"
      ],
      [
        "e",
        "la"
      ],
      [
        "v",
        "el"
      ],
      [
        "os",
        "to"
      ],
      [
        "or",
        "i"
      ],
      [
        "or",
        "o"
      ],
      [
        "po",
        "co"
      ],
      [
        "bi",
        "en"
      ],
      [
        "so",
        "lo"
      ],
      [
        "ag",
        "osto"
      ],
      [
        "fr",
        "ente"
      ],
      [
        "ini",
        "cio"
      ],
      [
        "deci",
        "dio"
      ],
      [
        "situ",
        "acion"
      ],
      [
        "1",
        "8"
      ],
      [
        "en",
        "vi"
      ],
      [
        "ar",
        "ro"
      ],
      [
        "ci",
        "ales"
      ],
      [
        "re",
        "publica"
      ],
      [
        "in",
        "te"
      ],
      [
        "ter",
        "ri"
      ],
      [
        "car",
        "los"
      ],
      [
        "cal",
        "i"
      ],
      [
        "vir",
        "rein"
      ],
      [
        "estado",
        "unid"
      ],
      [
        "ler",
        "do"
      ],
      [
        "be",
        "li"
      ],
      [
        "dec",
        "lar"
      ],
      [
        "consid",
        "er"
      ],
      [
        "estadounid",
        "en"
      ],
      [
        "a",
        "ti"
      ],
      [
        "s",
        "es"
      ],
      [
        "z",
        "aron"
      ],
      [
        "di",
        "cion"
      ],
      [
        "di",
        "do"
      ],
      [
        "id",
        "os"
      ],
      [
        "car",
        "go"
      ],
      [
        "ob",
        "li"
      ],
      [
        "liber",
        "ales"
      ],
      [
        "reci",
        "bio"
      ],
      [
        "terri",
        "tor"
      ],
      [
        "r",
        "se"
      ],
      [
        "ci",
        "do"
      ],
      [
        "re",
        "ti"
      ],
      [
        "ex",
        "tran"
      ],
      [
        "si",
        "tio"
      ],
      [
        "me",
        "j"
      ],
      [
        "tr",
        "os"
      ],
      [
        "ven",
        "cion"
      ],
      [
        "dos",
        "e"
      ],
      [
        "gobern",
        "ador"
      ],
      [
        "m",
        "ismo"
      ],
      [
        "o",
        "cas"
      ],
      [
        "p",
        "ad"
      ],
      [
        "p",
        "cion"
      ],
      [
        "in",
        "ten"
      ],
      [
        "li",
        "d"
      ],
      [
        "ac",
        "tu"
      ],
      [
        "idad",
        "es"
      ],
      [
        "constitucion",
        "al"
      ],
      [
        "pla",
        "za"
      ],
      [
        "comen",
        "zo"
      ],
      [
        "conser",
        "v"
      ],
      [
        "e",
        "u"
      ],
      [
        "h",
        "on"
      ],
      [
        "l",
        "ores"
      ],
      [
        "v",
        "es"
      ],
      [
        "mb",
        "o"
      ],
      [
        "lu",
        "cha"
      ],
      [
        "mar",
        "iano"
      ],
      [
        "politi",
        "co"
      ],
      [
        "lado",
        "lid"
      ],
      [
        "val",
        "ladolid"
      ],
      [
        "conoci",
        "do"
      ],
      [
        "sigui",
        "ente"
      ],
      [
        "extran",
        "j"
      ],
      [
        "a",
        "un"
      ],
      [
        "d",
        "or"
      ],
      [
        "g",
        "un"
      ],
      [
        "o",
        "f"
      ],
      [
        "p",
        "un"
      ],
      [
        "es",
        "in"
      ],
      [
        "ci",
        "miento"
      ],
      [
        "re",
        "gi"
      ],
      [
        "to",
        "mo"
      ],
      [
        "te",
        "x"
      ],
      [
        "pu",
        "so"
      ],
      [
        "pu",
        "est"
      ],
      [
        "se",
        "gu"
      ],
      [
        "za",
        "pa"
      ],
      [
        "mu",
        "l"
      ],
      [
        "haci",
        "enda"
      ],
      [
        "bra",
        "vo"
      ],
      [
        "t",
        "lan"
      ],
      [
        "u",
        "r"
      ],
      [
        "ar",
        "ias"
      ],
      [
        "ci",
        "os"
      ],
      [
        "ci",
        "entos"
      ],
      [
        "mi",
        "cho"
      ],
      [
        "ac",
        "to"
      ],
      [
        "cono",
        "cer"
      ],
      [
        "lle",
        "go"
      ],
      [
        "cap",
        "tur"
      ],
      [
        "a",
        "mb"
      ],
      [
        "e",
        "tar"
      ],
      [
        "v",
        "ision"
      ],
      [
        "ar",
        "ia"
      ],
      [
        "re",
        "beli"
      ],
      [
        "ca",
        "mpo"
      ],
      [
        "ra",
        "cion"
      ],
      [
        "vi",
        "c"
      ],
      [
        "se",
        "gui"
      ],
      [
        "so",
        "li"
      ],
      [
        "so",
        "ber"
      ],
      [
        "fuer",
        "te"
      ],
      [
        "aban",
        "don"
      ],
      [
        "minis",
        "tro"
      ],
      [
        "pala",
        "cio"
      ],
      [
        "muer",
        "te"
      ],
      [
        "m",
        "is"
      ],
      [
        "en",
        "a"
      ],
      [
        "an",
        "as"
      ],
      [
        "ci",
        "n"
      ],
      [
        "re",
        "la"
      ],
      [
        "te",
        "mp"
      ],
      [
        "res",
        "pon"
      ],
      [
        "ac",
        "cion"
      ],
      [
        "ces",
        "o"
      ],
      [
        "pr",
        "ision"
      ],
      [
        "indi",
        "gen"
      ],
      [
        "guad",
        "alu"
      ],
      [
        "a",
        "pro"
      ],
      [
        "a",
        "cuer"
      ],
      [
        "c",
        "ano"
      ],
      [
        "f",
        "al"
      ],
      [
        "pu",
        "lar"
      ],
      [
        "ins",
        "titu"
      ],
      [
        "nomb",
        "rado"
      ],
      [
        "puer",
        "to"
      ],
      [
        "contin",
        "u"
      ],
      [
        "c",
        "ad"
      ],
      [
        "m",
        "entos"
      ],
      [
        "n",
        "ico"
      ],
      [
        "re",
        "uni"
      ],
      [
        "te",
        "ca"
      ],
      [
        "vi",
        "da"
      ],
      [
        "gu",
        "ar"
      ],
      [
        "mar",
        "gar"
      ],
      [
        "des",
        "ta"
      ],
      [
        "des",
        "arro"
      ],
      [
        "hi",
        "jo"
      ],
      [
        "ne",
        "go"
      ],
      [
        "posi",
        "cion"
      ],
      [
        "camp",
        "ana"
      ],
      [
        "pes",
        "ar"
      ],
      [
        "encontra",
        "ba"
      ],
      [
        "perio",
        "do"
      ],
      [
        "carran",
        "za"
      ],
      [
        "caus",
        "a"
      ],
      [
        "margar",
        "ita"
      ],
      [
        "a",
        "te"
      ],
      [
        "d",
        "in"
      ],
      [
        "e",
        "ta"
      ],
      [
        "s",
        "ab"
      ],
      [
        "ca",
        "mb"
      ],
      [
        "man",
        "i"
      ],
      [
        "for",
        "mar"
      ],
      [
        "fu",
        "si"
      ],
      [
        "orden",
        "es"
      ],
      [
        "apo",
        "y"
      ],
      [
        "liber",
        "tad"
      ],
      [
        "ley",
        "es"
      ],
      [
        "princip",
        "ales"
      ],
      [
        "vic",
        "ente"
      ],
      [
        "nico",
        "las"
      ],
      [
        "d",
        "ente"
      ],
      [
        "h",
        "acer"
      ],
      [
        "p",
        "li"
      ],
      [
        "z",
        "os"
      ],
      [
        "es",
        "cu"
      ],
      [
        "en",
        "vio"
      ],
      [
        "ti",
        "ene"
      ],
      [
        "ta",
        "cion"
      ],
      [
        "po",
        "pular"
      ],
      [
        "ac",
        "ep"
      ],
      [
        "car",
        "on"
      ],
      [
        "ce",
        "le"
      ],
      [
        "pos",
        "terior"
      ],
      [
        "porfi",
        "ri"
      ],
      [
        "frances",
        "es"
      ],
      [
        "teni",
        "ente"
      ],
      [
        "lleg",
        "aron"
      ],
      [
        "feli",
        "x"
      ],
      [
        "decre",
        "to"
      ],
      [
        "huer",
        "ta"
      ],
      [
        "beni",
        "to"
      ],
      [
        "1",
        "9"
      ],
      [
        "g",
        "io"
      ],
      [
        "i",
        "cion"
      ],
      [
        "p",
        "al"
      ],
      [
        "p",
        "io"
      ],
      [
        "t",
        "ada"
      ],
      [
        "ad",
        "minis"
      ],
      [
        "ti",
        "ca"
      ],
      [
        "ti",
        "vos"
      ],
      [
        "ta",
        "miento"
      ],
      [
        "con",
        "tro"
      ],
      [
        "ra",
        "mon"
      ],
      [
        "car",
        "ta"
      ],
      [
        "jo",
        "a"
      ],
      [
        "tri",
        "un"
      ],
      [
        "ele",
        "ccion"
      ],
      [
        "cuer",
        "po"
      ],
      [
        "organ",
        "iz"
      ],
      [
        "micho",
        "acan"
      ],
      [
        "m",
        "un"
      ],
      [
        "en",
        "cuent"
      ],
      [
        "an",
        "na"
      ],
      [
        "in",
        "e"
      ],
      [
        "ent",
        "a"
      ],
      [
        "ti",
        "llo"
      ],
      [
        "ter",
        "i"
      ],
      [
        "fi",
        "co"
      ],
      [
        "gen",
        "cia"
      ],
      [
        "presid",
        "en"
      ],
      [
        "pues",
        "ta"
      ],
      [
        "gru",
        "pos"
      ],
      [
        "guadalu",
        "pe"
      ],
      [
        "acuer",
        "do"
      ],
      [
        "p",
        "ab"
      ],
      [
        "ci",
        "eron"
      ],
      [
        "re",
        "cha"
      ],
      [
        "di",
        "vision"
      ],
      [
        "li",
        "der"
      ],
      [
        "con",
        "vo"
      ],
      [
        "no",
        "vo"
      ],
      [
        "si",
        "gu"
      ],
      [
        "mexi",
        "canos"
      ],
      [
        "tan",
        "do"
      ],
      [
        "cas",
        "a"
      ],
      [
        "lle",
        "v"
      ],
      [
        "capi",
        "lla"
      ],
      [
        "cul",
        "tura"
      ],
      [
        "eu",
        "ro"
      ],
      [
        "a",
        "cu"
      ],
      [
        "a",
        "par"
      ],
      [
        "e",
        "c"
      ],
      [
        "h",
        "or"
      ],
      [
        "s",
        "tin"
      ],
      [
        "di",
        "c"
      ],
      [
        "is",
        "la"
      ],
      [
        "con",
        "tr"
      ],
      [
        "te",
        "pec"
      ],
      [
        "su",
        "per"
      ],
      [
        "bi",
        "lidad"
      ],
      [
        "qu",
        "ez"
      ],
      [
        "pe",
        "qu"
      ],
      [
        "lar",
        "es"
      ],
      [
        "pr",
        "en"
      ],
      [
        "pas",
        "o"
      ],
      [
        "liber",
        "al"
      ],
      [
        "com",
        "uni"
      ],
      [
        "int",
        "ento"
      ],
      [
        "iza",
        "cion"
      ],
      [
        "palafo",
        "x"
      ],
      [
        "joa",
        "quin"
      ],
      [
        "g",
        "ente"
      ],
      [
        "es",
        "co"
      ],
      [
        "re",
        "d"
      ],
      [
        "re",
        "greso"
      ],
      [
        "con",
        "f"
      ],
      [
        "ru",
        "mbo"
      ],
      [
        "cons",
        "pi"
      ],
      [
        "esp",
        "osa"
      ],
      [
        "hu",
        "i"
      ],
      [
        "capi",
        "tu"
      ],
      [
        "publi",
        "co"
      ],
      [
        "cent",
        "ro"
      ],
      [
        "quer",
        "etar"
      ],
      [
        "cuar",
        "o"
      ],
      [
        "pad",
        "re"
      ],
      [
        "porfiri",
        "ato"
      ],
      [
        "queretar",
        "o"
      ],
      [
        "a",
        "j"
      ],
      [
        "ar",
        "do"
      ],
      [
        "ci",
        "r"
      ],
      [
        "is",
        "te"
      ],
      [
        "vi",
        "er"
      ],
      [
        "res",
        "ul"
      ],
      [
        "mo",
        "mento"
      ],
      [
        "bi",
        "bli"
      ],
      [
        "cas",
        "o"
      ],
      [
        "ho",
        "y"
      ],
      [
        "primer",
        "os"
      ],
      [
        "nomb",
        "re"
      ],
      [
        "indi",
        "as"
      ],
      [
        "cab",
        "o"
      ],
      [
        "ren",
        "un"
      ],
      [
        "jus",
        "ticia"
      ],
      [
        "imper",
        "io"
      ],
      [
        "posterior",
        "mente"
      ],
      [
        "e",
        "po"
      ],
      [
        "f",
        "ra"
      ],
      [
        "l",
        "los"
      ],
      [
        "m",
        "n"
      ],
      [
        "y",
        "u"
      ],
      [
        "es",
        "pe"
      ],
      [
        "er",
        "ia"
      ],
      [
        "tu",
        "vieron"
      ],
      [
        "cu",
        "ra"
      ],
      [
        "tra",
        "cion"
      ],
      [
        "ob",
        "je"
      ],
      [
        "mu",
        "rio"
      ],
      [
        "ver",
        "s"
      ],
      [
        "fin",
        "al"
      ],
      [
        "princip",
        "al"
      ],
      [
        "dere",
        "cho"
      ],
      [
        "inclu",
        "so"
      ],
      [
        "secretar",
        "io"
      ],
      [
        "ocas",
        "ion"
      ],
      [
        "l",
        "ad"
      ],
      [
        "l",
        "or"
      ],
      [
        "l",
        "las"
      ],
      [
        "s",
        "ent"
      ],
      [
        "an",
        "i"
      ],
      [
        "ran",
        "go"
      ],
      [
        "so",
        "cial"
      ],
      [
        "gar",
        "cia"
      ],
      [
        "ob",
        "ra"
      ],
      [
        "nu",
        "mero"
      ],
      [
        "ver",
        "sion"
      ],
      [
        "pes",
        "os"
      ],
      [
        "economi",
        "ca"
      ],
      [
        "agu",
        "stin"
      ],
      [
        "indigen",
        "as"
      ],
      [
        "conf",
        "li"
      ],
      [
        "b",
        "rig"
      ],
      [
        "e",
        "du"
      ],
      [
        "f",
        "on"
      ],
      [
        "g",
        "e"
      ],
      [
        "g",
        "ri"
      ],
      [
        "j",
        "ara"
      ],
      [
        "l",
        "do"
      ],
      [
        "m",
        "al"
      ],
      [
        "t",
        "ales"
      ],
      [
        "es",
        "per"
      ],
      [
        "as",
        "e"
      ],
      [
        "re",
        "publi"
      ],
      [
        "re",
        "conoci"
      ],
      [
        "or",
        "ig"
      ],
      [
        "ti",
        "a"
      ],
      [
        "ti",
        "an"
      ],
      [
        "co",
        "lo"
      ],
      [
        "co",
        "lu"
      ],
      [
        "ca",
        "u"
      ],
      [
        "li",
        "b"
      ],
      [
        "to",
        "tal"
      ],
      [
        "mi",
        "er"
      ],
      [
        "po",
        "tos"
      ],
      [
        "ch",
        "ar"
      ],
      [
        "man",
        "e"
      ],
      [
        "tra",
        "ba"
      ],
      [
        "fran",
        "cia"
      ],
      [
        "tri",
        "a"
      ],
      [
        "inter",
        "vencion"
      ],
      [
        "fr",
        "on"
      ],
      [
        "ameri",
        "canos"
      ],
      [
        "derro",
        "tado"
      ],
      [
        "feder",
        "al"
      ],
      [
        "person",
        "as"
      ],
      [
        "victor",
        "ia"
      ],
      [
        "estadouniden",
        "se"
      ],
      [
        "pab",
        "lo"
      ],
      [
        "novo",
        "his"
      ],
      [
        "a",
        "hi"
      ],
      [
        "g",
        "re"
      ],
      [
        "l",
        "ler"
      ],
      [
        "v",
        "or"
      ],
      [
        "z",
        "co"
      ],
      [
        "en",
        "fr"
      ],
      [
        "an",
        "d"
      ],
      [
        "an",
        "ia"
      ],
      [
        "ci",
        "li"
      ],
      [
        "re",
        "forma"
      ],
      [
        "re",
        "lacion"
      ],
      [
        "di",
        "os"
      ],
      [
        "di",
        "jo"
      ],
      [
        "ta",
        "man"
      ],
      [
        "con",
        "su"
      ],
      [
        "do",
        "cu"
      ],
      [
        "ex",
        "pe"
      ],
      [
        "se",
        "gun"
      ],
      [
        "pro",
        "vo"
      ],
      [
        "pi",
        "os"
      ],
      [
        "pi",
        "dio"
      ],
      [
        "est",
        "ra"
      ],
      [
        "fe",
        "c"
      ],
      [
        "gi",
        "os"
      ],
      [
        "rey",
        "es"
      ],
      [
        "teni",
        "an"
      ],
      [
        "conse",
        "jo"
      ],
      [
        "dere",
        "chos"
      ],
      [
        "he",
        "cho"
      ],
      [
        "dirig",
        "io"
      ],
      [
        "bibli",
        "o"
      ],
      [
        "potos",
        "i"
      ],
      [
        "a",
        "z"
      ],
      [
        "a",
        "compan"
      ],
      [
        "b",
        "un"
      ],
      [
        "d",
        "ra"
      ],
      [
        "e",
        "a"
      ],
      [
        "l",
        "ados"
      ],
      [
        "r",
        "era"
      ],
      [
        "er",
        "as"
      ],
      [
        "en",
        "cias"
      ],
      [
        "ci",
        "ar"
      ],
      [
        "al",
        "da"
      ],
      [
        "in",
        "su"
      ],
      [
        "ti",
        "co"
      ],
      [
        "co",
        "a"
      ],
      [
        "ro",
        "mero"
      ],
      [
        "ri",
        "eron"
      ],
      [
        "ma",
        "ta"
      ],
      [
        "su",
        "pre"
      ],
      [
        "si",
        "er"
      ],
      [
        "des",
        "e"
      ],
      [
        "pa",
        "z"
      ],
      [
        "ob",
        "ras"
      ],
      [
        "mu",
        "y"
      ],
      [
        "ciudad",
        "es"
      ],
      [
        "tro",
        "pa"
      ],
      [
        "lle",
        "gar"
      ],
      [
        "log",
        "raron"
      ],
      [
        "com",
        "ision"
      ],
      [
        "comen",
        "zaron"
      ],
      [
        "jes",
        "us"
      ],
      [
        "encontra",
        "ban"
      ],
      [
        "igu",
        "al"
      ],
      [
        "ayu",
        "da"
      ],
      [
        "desarro",
        "llo"
      ],
      [
        "presiden",
        "cial"
      ],
      [
        "orig",
        "in"
      ],
      [
        "b",
        "lan"
      ],
      [
        "g",
        "ada"
      ],
      [
        "m",
        "uni"
      ],
      [
        "p",
        "el"
      ],
      [
        "an",
        "za"
      ],
      [
        "in",
        "media"
      ],
      [
        "di",
        "ri"
      ],
      [
        "res",
        "ta"
      ],
      [
        "res",
        "to"
      ],
      [
        "res",
        "pe"
      ],
      [
        "man",
        "era"
      ],
      [
        "ab",
        "o"
      ],
      [
        "mar",
        "tin"
      ],
      [
        "pro",
        "pi"
      ],
      [
        "car",
        "a"
      ],
      [
        "tan",
        "tes"
      ],
      [
        "ce",
        "pcion"
      ],
      [
        "for",
        "mo"
      ],
      [
        "ala",
        "jara"
      ],
      [
        "politi",
        "cos"
      ],
      [
        "frances",
        "a"
      ],
      [
        "fun",
        "cion"
      ],
      [
        "feli",
        "pe"
      ],
      [
        "guad",
        "alajara"
      ],
      [
        "territor",
        "io"
      ],
      [
        "zapa",
        "ta"
      ],
      [
        "rebeli",
        "on"
      ],
      [
        "epo",
        "ca"
      ],
      [
        "novohis",
        "p"
      ],
      [
        "segun",
        "da"
      ],
      [
        "h",
        "en"
      ],
      [
        "j",
        "i"
      ],
      [
        "l",
        "ero"
      ],
      [
        "s",
        "acer"
      ],
      [
        "on",
        "a"
      ],
      [
        "re",
        "bel"
      ],
      [
        "is",
        "ten"
      ],
      [
        "is",
        "cal"
      ],
      [
        "vi",
        "dad"
      ],
      [
        "go",
        "l"
      ],
      [
        "no",
        "che"
      ],
      [
        "man",
        "ana"
      ],
      [
        "na",
        "po"
      ],
      [
        "per",
        "ez"
      ],
      [
        "cas",
        "i"
      ],
      [
        "gi",
        "do"
      ],
      [
        "lle",
        "vo"
      ],
      [
        "tri",
        "bun"
      ],
      [
        "fa",
        "vor"
      ],
      [
        "ne",
        "ces"
      ],
      [
        "parti",
        "do"
      ],
      [
        "mes",
        "es"
      ],
      [
        "tras",
        "lad"
      ],
      [
        "herman",
        "o"
      ],
      [
        "indu",
        "l"
      ],
      [
        "puest",
        "os"
      ],
      [
        "sigu",
        "io"
      ],
      [
        "sacer",
        "do"
      ],
      [
        "i",
        "ma"
      ],
      [
        "j",
        "ar"
      ],
      [
        "m",
        "ez"
      ],
      [
        "r",
        "ados"
      ],
      [
        "t",
        "z"
      ],
      [
        "v",
        "arez"
      ],
      [
        "x",
        "vi"
      ],
      [
        "z",
        "ado"
      ],
      [
        "es",
        "ca"
      ],
      [
        "ci",
        "edad"
      ],
      [
        "al",
        "varez"
      ],
      [
        "re",
        "union"
      ],
      [
        "ca",
        "ba"
      ],
      [
        "ca",
        "min"
      ],
      [
        "mi",
        "a"
      ],
      [
        "pa",
        "ci"
      ],
      [
        "so",
        "ciedad"
      ],
      [
        "tra",
        "baj"
      ],
      [
        "pen",
        "insu"
      ],
      [
        "hi",
        "jos"
      ],
      [
        "gui",
        "r"
      ],
      [
        "princi",
        "pios"
      ],
      [
        "coman",
        "d"
      ],
      [
        "sober",
        "ania"
      ],
      [
        "napo",
        "leon"
      ],
      [
        "v",
        "ista"
      ],
      [
        "an",
        "g"
      ],
      [
        "as",
        "esin"
      ],
      [
        "re",
        "cu"
      ],
      [
        "re",
        "tra"
      ],
      [
        "di",
        "fer"
      ],
      [
        "di",
        "endo"
      ],
      [
        "to",
        "li"
      ],
      [
        "do",
        "lores"
      ],
      [
        "cu",
        "esti"
      ],
      [
        "se",
        "bas"
      ],
      [
        "man",
        "os"
      ],
      [
        "des",
        "ig"
      ],
      [
        "tor",
        "es"
      ],
      [
        "cono",
        "cio"
      ],
      [
        "les",
        "ias"
      ],
      [
        "can",
        "dida"
      ],
      [
        "real",
        "izo"
      ],
      [
        "au",
        "s"
      ],
      [
        "nueva",
        "mente"
      ],
      [
        "log",
        "ia"
      ],
      [
        "que",
        "d"
      ],
      [
        "adi",
        "er"
      ],
      [
        "ulti",
        "mo"
      ],
      [
        "clas",
        "e"
      ],
      [
        "hab",
        "i"
      ],
      [
        "amb",
        "os"
      ],
      [
        "ec",
        "lesias"
      ],
      [
        "super",
        "ior"
      ],
      [
        "biblio",
        "teca"
      ],
      [
        "sebas",
        "tian"
      ],
      [
        "c",
        "ada"
      ],
      [
        "c",
        "rio"
      ],
      [
        "e",
        "gas"
      ],
      [
        "i",
        "e"
      ],
      [
        "i",
        "x"
      ],
      [
        "i",
        "al"
      ],
      [
        "j",
        "as"
      ],
      [
        "o",
        "tor"
      ],
      [
        "p",
        "ado"
      ],
      [
        "t",
        "adas"
      ],
      [
        "y",
        "e"
      ],
      [
        "ci",
        "vil"
      ],
      [
        "al",
        "ta"
      ],
      [
        "re",
        "eleccion"
      ],
      [
        "in",
        "vas"
      ],
      [
        "di",
        "re"
      ],
      [
        "di",
        "vi"
      ],
      [
        "co",
        "la"
      ],
      [
        "co",
        "mi"
      ],
      [
        "pro",
        "mul"
      ],
      [
        "per",
        "mane"
      ],
      [
        "mu",
        "se"
      ],
      [
        "du",
        "rango"
      ],
      [
        "lla",
        "mado"
      ],
      [
        "mon",
        "ar"
      ],
      [
        "uni",
        "ca"
      ],
      [
        "tri",
        "gar"
      ],
      [
        "ven",
        "egas"
      ],
      [
        "sal",
        "io"
      ],
      [
        "parti",
        "r"
      ],
      [
        "cab",
        "al"
      ],
      [
        "mayor",
        "ia"
      ],
      [
        "ay",
        "un"
      ],
      [
        "jes",
        "u"
      ],
      [
        "prov",
        "inci"
      ],
      [
        "ofi",
        "cial"
      ],
      [
        "avan",
        "ce"
      ],
      [
        "cris",
        "is"
      ],
      [
        "conserv",
        "adores"
      ],
      [
        "adminis",
        "tracion"
      ],
      [
        "brig",
        "adier"
      ],
      [
        "a",
        "pre"
      ],
      [
        "c",
        "ana"
      ],
      [
        "c",
        "tos"
      ],
      [
        "d",
        "al"
      ],
      [
        "g",
        "ab"
      ],
      [
        "n",
        "un"
      ],
      [
        "p",
        "ra"
      ],
      [
        "p",
        "lo"
      ],
      [
        "r",
        "ales"
      ],
      [
        "ar",
        "an"
      ],
      [
        "re",
        "z"
      ],
      [
        "or",
        "te"
      ],
      [
        "ta",
        "b"
      ],
      [
        "ta",
        "ban"
      ],
      [
        "un",
        "io"
      ],
      [
        "ac",
        "ti"
      ],
      [
        "mp",
        "li"
      ],
      [
        "fi",
        "cacion"
      ],
      [
        "tor",
        "res"
      ],
      [
        "emb",
        "aj"
      ],
      [
        "cor",
        "tes"
      ],
      [
        "gar",
        "anti"
      ],
      [
        "cer",
        "ro"
      ],
      [
        "au",
        "di"
      ],
      [
        "tur",
        "al"
      ],
      [
        "tur",
        "as"
      ],
      [
        "pre",
        "par"
      ],
      [
        "fer",
        "ro"
      ],
      [
        "ros",
        "a"
      ],
      [
        "porfi",
        "r"
      ],
      [
        "ag",
        "a"
      ],
      [
        "ins",
        "tru"
      ],
      [
        "coron",
        "a"
      ],
      [
        "pla",
        "ta"
      ],
      [
        "bar",
        "ra"
      ],
      [
        "ser",
        "vi"
      ],
      [
        "ser",
        "ie"
      ],
      [
        "cur",
        "sos"
      ],
      [
        "tras",
        "lado"
      ],
      [
        "prov",
        "ision"
      ],
      [
        "termin",
        "o"
      ],
      [
        "bus",
        "taman"
      ],
      [
        "ulti",
        "ma"
      ],
      [
        "autor",
        "idades"
      ],
      [
        "cad",
        "iz"
      ],
      [
        "sier",
        "ra"
      ],
      [
        "ang",
        "el"
      ],
      [
        "bustaman",
        "te"
      ],
      [
        "e",
        "vi"
      ],
      [
        "h",
        "ac"
      ],
      [
        "j",
        "er"
      ],
      [
        "n",
        "os"
      ],
      [
        "s",
        "iste"
      ],
      [
        "u",
        "bi"
      ],
      [
        "en",
        "cabez"
      ],
      [
        "re",
        "gon"
      ],
      [
        "in",
        "quis"
      ],
      [
        "in",
        "version"
      ],
      [
        "di",
        "r"
      ],
      [
        "co",
        "lon"
      ],
      [
        "ca",
        "toli"
      ],
      [
        "te",
        "o"
      ],
      [
        "gu",
        "ez"
      ],
      [
        "ma",
        "ba"
      ],
      [
        "man",
        "da"
      ],
      [
        "ac",
        "ciones"
      ],
      [
        "qu",
        "es"
      ],
      [
        "qu",
        "ia"
      ],
      [
        "fi",
        "gu"
      ],
      [
        "so",
        "la"
      ],
      [
        "pi",
        "e"
      ],
      [
        "da",
        "ca"
      ],
      [
        "ob",
        "regon"
      ],
      [
        "insur",
        "gencia"
      ],
      [
        "fin",
        "es"
      ],
      [
        "tri",
        "bu"
      ],
      [
        "inter",
        "es"
      ],
      [
        "apo",
        "daca"
      ],
      [
        "espano",
        "la"
      ],
      [
        "reci",
        "bi"
      ],
      [
        "qui",
        "er"
      ],
      [
        "reg",
        "ion"
      ],
      [
        "isti",
        "a"
      ],
      [
        "leg",
        "isla"
      ],
      [
        "feder",
        "ales"
      ],
      [
        "ata",
        "que"
      ],
      [
        "zon",
        "a"
      ],
      [
        "reli",
        "gios"
      ],
      [
        "vol",
        "vio"
      ],
      [
        "virrein",
        "ato"
      ],
      [
        "mej",
        "or"
      ],
      [
        "pun",
        "to"
      ],
      [
        "rela",
        "ciones"
      ],
      [
        "camb",
        "io"
      ],
      [
        "triun",
        "fo"
      ],
      [
        "confli",
        "cto"
      ],
      [
        "muni",
        "ci"
      ],
      [
        "muse",
        "o"
      ],
      [
        "orte",
        "ga"
      ],
      [
        "a",
        "mi"
      ],
      [
        "a",
        "pan"
      ],
      [
        "c",
        "ra"
      ],
      [
        "d",
        "ent"
      ],
      [
        "i",
        "cio"
      ],
      [
        "s",
        "ta"
      ],
      [
        "v",
        "ento"
      ],
      [
        "y",
        "eron"
      ],
      [
        "as",
        "o"
      ],
      [
        "in",
        "g"
      ],
      [
        "ent",
        "i"
      ],
      [
        "con",
        "for"
      ],
      [
        "de",
        "fin"
      ],
      [
        "cu",
        "au"
      ],
      [
        "id",
        "as"
      ],
      [
        "ter",
        "an"
      ],
      [
        "pres",
        "ion"
      ],
      [
        "can",
        "as"
      ],
      [
        "cos",
        "ta"
      ],
      [
        "ins",
        "tal"
      ],
      [
        "derro",
        "ta"
      ],
      [
        "mor",
        "os"
      ],
      [
        "articu",
        "los"
      ],
      [
        "jus",
        "to"
      ],
      [
        "importan",
        "tes"
      ],
      [
        "tis",
        "ta"
      ],
      [
        "cris",
        "to"
      ],
      [
        "teri",
        "ores"
      ],
      [
        "alda",
        "ma"
      ],
      [
        "coa",
        "hui"
      ],
      [
        "isten",
        "cia"
      ],
      [
        "c",
        "un"
      ],
      [
        "j",
        "ada"
      ],
      [
        "m",
        "el"
      ],
      [
        "s",
        "ar"
      ],
      [
        "al",
        "li"
      ],
      [
        "re",
        "for"
      ],
      [
        "con",
        "vir"
      ],
      [
        "ra",
        "fa"
      ],
      [
        "la",
        "ter"
      ],
      [
        "te",
        "jada"
      ],
      [
        "mi",
        "o"
      ],
      [
        "no",
        "ti"
      ],
      [
        "dad",
        "a"
      ],
      [
        "car",
        "ac"
      ],
      [
        "fi",
        "ca"
      ],
      [
        "tra",
        "ves"
      ],
      [
        "cal",
        "a"
      ],
      [
        "cal",
        "idad"
      ],
      [
        "lla",
        "mada"
      ],
      [
        "cer",
        "ca"
      ],
      [
        "fuer",
        "za"
      ],
      [
        "gran",
        "des"
      ],
      [
        "gra",
        "cias"
      ],
      [
        "deci",
        "sion"
      ],
      [
        "economi",
        "co"
      ],
      [
        "defen",
        "sa"
      ],
      [
        "cuent",
        "a"
      ],
      [
        "ejecu",
        "tivo"
      ],
      [
        "tier",
        "ra"
      ],
      [
        "inf",
        "lu"
      ],
      [
        "permi",
        "ti"
      ],
      [
        "permi",
        "tio"
      ],
      [
        "hon",
        "or"
      ],
      [
        "tex",
        "as"
      ],
      [
        "mun",
        "do"
      ],
      [
        "colu",
        "mn"
      ],
      [
        "mata",
        "moros"
      ],
      [
        "xvi",
        "ii"
      ],
      [
        "esca",
        "par"
      ],
      [
        "nun",
        "ca"
      ],
      [
        "acti",
        "vidad"
      ],
      [
        "audi",
        "encia"
      ],
      [
        "siste",
        "ma"
      ],
      [
        "coahui",
        "la"
      ],
      [
        "a",
        "ciones"
      ],
      [
        "d",
        "entro"
      ],
      [
        "m",
        "ados"
      ],
      [
        "p",
        "l"
      ],
      [
        "v",
        "uel"
      ],
      [
        "le",
        "o"
      ],
      [
        "te",
        "c"
      ],
      [
        "te",
        "l"
      ],
      [
        "de",
        "z"
      ],
      [
        "cu",
        "al"
      ],
      [
        "ab",
        "le"
      ],
      [
        "car",
        "ri"
      ],
      [
        "cor",
        "por"
      ],
      [
        "tri",
        "mon"
      ],
      [
        "poder",
        "es"
      ],
      [
        "herman",
        "os"
      ],
      [
        "mati",
        "as"
      ],
      [
        "sus",
        "titu"
      ],
      [
        "escri",
        "bio"
      ],
      [
        "indu",
        "s"
      ],
      [
        "antigu",
        "o"
      ],
      [
        "ine",
        "te"
      ],
      [
        "apar",
        "e"
      ],
      [
        "respe",
        "cto"
      ],
      [
        "indul",
        "to"
      ],
      [
        "habi",
        "tantes"
      ],
      [
        "gab",
        "inete"
      ],
      [
        "cuau",
        "tla"
      ],
      [
        "carac",
        "ter"
      ],
      [
        "b",
        "ro"
      ],
      [
        "b",
        "ando"
      ],
      [
        "c",
        "ados"
      ],
      [
        "c",
        "ru"
      ],
      [
        "c",
        "ales"
      ],
      [
        "f",
        "ri"
      ],
      [
        "i",
        "tas"
      ],
      [
        "o",
        "per"
      ],
      [
        "v",
        "esti"
      ],
      [
        "ar",
        "z"
      ],
      [
        "os",
        "o"
      ],
      [
        "al",
        "tar"
      ],
      [
        "as",
        "cen"
      ],
      [
        "re",
        "du"
      ],
      [
        "re",
        "cursos"
      ],
      [
        "ca",
        "bi"
      ],
      [
        "con",
        "de"
      ],
      [
        "con",
        "clu"
      ],
      [
        "res",
        "o"
      ],
      [
        "res",
        "tos"
      ],
      [
        "cu",
        "ba"
      ],
      [
        "ex",
        "ten"
      ],
      [
        "ma",
        "est"
      ],
      [
        "pro",
        "hi"
      ],
      [
        "tar",
        "se"
      ],
      [
        "so",
        "lu"
      ],
      [
        "me",
        "tro"
      ],
      [
        "tan",
        "te"
      ],
      [
        "can",
        "do"
      ],
      [
        "tr",
        "on"
      ],
      [
        "esta",
        "tu"
      ],
      [
        "gran",
        "de"
      ],
      [
        "her",
        "rera"
      ],
      [
        "aca",
        "pul"
      ],
      [
        "je",
        "fes"
      ],
      [
        "cul",
        "tad"
      ],
      [
        "teni",
        "do"
      ],
      [
        "cent",
        "ral"
      ],
      [
        "economi",
        "a"
      ],
      [
        "conse",
        "cu"
      ],
      [
        "cur",
        "so"
      ],
      [
        "person",
        "a"
      ],
      [
        "igu",
        "ala"
      ],
      [
        "comb",
        "ate"
      ],
      [
        "constru",
        "ccion"
      ],
      [
        "gal",
        "e"
      ],
      [
        "edi",
        "fi"
      ],
      [
        "of",
        "re"
      ],
      [
        "captur",
        "ado"
      ],
      [
        "segui",
        "do"
      ],
      [
        "conspi",
        "racion"
      ],
      [
        "edu",
        "cacion"
      ],
      [
        "desig",
        "n"
      ],
      [
        "jesu",
        "itas"
      ],
      [
        "manda",
        "to"
      ],
      [
        "trimon",
        "io"
      ],
      [
        "acapul",
        "co"
      ],
      [
        "g",
        "abri"
      ],
      [
        "m",
        "ala"
      ],
      [
        "s",
        "or"
      ],
      [
        "s",
        "ala"
      ],
      [
        "t",
        "re"
      ],
      [
        "en",
        "os"
      ],
      [
        "al",
        "e"
      ],
      [
        "al",
        "to"
      ],
      [
        "as",
        "u"
      ],
      [
        "as",
        "un"
      ],
      [
        "or",
        "iz"
      ],
      [
        "ti",
        "do"
      ],
      [
        "di",
        "co"
      ],
      [
        "di",
        "ente"
      ],
      [
        "con",
        "ven"
      ],
      [
        "te",
        "hu"
      ],
      [
        "ch",
        "as"
      ],
      [
        "ch",
        "or"
      ],
      [
        "su",
        "ces"
      ],
      [
        "mar",
        "iscal"
      ],
      [
        "ter",
        "a"
      ],
      [
        "bi",
        "lle"
      ],
      [
        "pro",
        "ceso"
      ],
      [
        "pa",
        "cion"
      ],
      [
        "pres",
        "ento"
      ],
      [
        "san",
        "to"
      ],
      [
        "me",
        "tros"
      ],
      [
        "min",
        "a"
      ],
      [
        "can",
        "ti"
      ],
      [
        "lar",
        "go"
      ],
      [
        "fin",
        "ales"
      ],
      [
        "asi",
        "mismo"
      ],
      [
        "revolucion",
        "arios"
      ],
      [
        "indepen",
        "dent"
      ],
      [
        "estable",
        "cio"
      ],
      [
        "estable",
        "ce"
      ],
      [
        "importan",
        "te"
      ],
      [
        "actu",
        "al"
      ],
      [
        "espe",
        "cial"
      ],
      [
        "supre",
        "ma"
      ],
      [
        "rebel",
        "des"
      ],
      [
        "tribun",
        "al"
      ],
      [
        "ayun",
        "tamiento"
      ],
      [
        "gale",
        "ana"
      ],
      [
        "gabri",
        "el"
      ],
      [
        "a",
        "mente"
      ],
      [
        "c",
        "lero"
      ],
      [
        "d",
        "an"
      ],
      [
        "e",
        "o"
      ],
      [
        "i",
        "l"
      ],
      [
        "i",
        "mo"
      ],
      [
        "i",
        "lu"
      ],
      [
        "i",
        "dio"
      ],
      [
        "u",
        "ti"
      ],
      [
        "y",
        "endo"
      ],
      [
        "re",
        "gres"
      ],
      [
        "in",
        "cia"
      ],
      [
        "ti",
        "z"
      ],
      [
        "ta",
        "mente"
      ],
      [
        "ta",
        "ciones"
      ],
      [
        "con",
        "ver"
      ],
      [
        "con",
        "cili"
      ],
      [
        "te",
        "le"
      ],
      [
        "cu",
        "bier"
      ],
      [
        "ex",
        "tra"
      ],
      [
        "no",
        "ticia"
      ],
      [
        "ez",
        "a"
      ],
      [
        "mar",
        "quez"
      ],
      [
        "si",
        "emp"
      ],
      [
        "ter",
        "o"
      ],
      [
        "tor",
        "re"
      ],
      [
        "za",
        "cate"
      ],
      [
        "me",
        "mor"
      ],
      [
        "cor",
        "te"
      ],
      [
        "ce",
        "dio"
      ],
      [
        "mon",
        "e"
      ],
      [
        "mon",
        "te"
      ],
      [
        "ejer",
        "ci"
      ],
      [
        "fuer",
        "zos"
      ],
      [
        "sal",
        "ir"
      ],
      [
        "son",
        "ora"
      ],
      [
        "organ",
        "izacion"
      ],
      [
        "ii",
        "i"
      ],
      [
        "prov",
        "incia"
      ],
      [
        "realiz",
        "ar"
      ],
      [
        "encar",
        "gado"
      ],
      [
        "comb",
        "ati"
      ],
      [
        "estu",
        "dio"
      ],
      [
        "comer",
        "cio"
      ],
      [
        "regi",
        "men"
      ],
      [
        "cin",
        "go"
      ],
      [
        "contro",
        "l"
      ],
      [
        "lider",
        "es"
      ],
      [
        "hor",
        "as"
      ],
      [
        "yu",
        "ca"
      ],
      [
        "reconoci",
        "miento"
      ],
      [
        "traba",
        "jo"
      ],
      [
        "diri",
        "gi"
      ],
      [
        "comand",
        "ante"
      ],
      [
        "crio",
        "llos"
      ],
      [
        "apre",
        "hen"
      ],
      [
        "pra",
        "c"
      ],
      [
        "mel",
        "chor"
      ],
      [
        "siemp",
        "re"
      ],
      [
        "a",
        "co"
      ],
      [
        "a",
        "tro"
      ],
      [
        "e",
        "mi"
      ],
      [
        "i",
        "v"
      ],
      [
        "en",
        "das"
      ],
      [
        "ar",
        "mi"
      ],
      [
        "ci",
        "vi"
      ],
      [
        "al",
        "co"
      ],
      [
        "re",
        "ino"
      ],
      [
        "re",
        "tab"
      ],
      [
        "in",
        "vi"
      ],
      [
        "con",
        "taba"
      ],
      [
        "ra",
        "mi"
      ],
      [
        "go",
        "mez"
      ],
      [
        "id",
        "or"
      ],
      [
        "id",
        "ores"
      ],
      [
        "se",
        "min"
      ],
      [
        "ju",
        "icio"
      ],
      [
        "man",
        "o"
      ],
      [
        "mar",
        "on"
      ],
      [
        "ru",
        "rales"
      ],
      [
        "cor",
        "re"
      ],
      [
        "ce",
        "la"
      ],
      [
        "mu",
        "jer"
      ],
      [
        "mon",
        "u"
      ],
      [
        "pr",
        "on"
      ],
      [
        "pas",
        "cual"
      ],
      [
        "vir",
        "gen"
      ],
      [
        "pais",
        "es"
      ],
      [
        "inter",
        "ior"
      ],
      [
        "que",
        "do"
      ],
      [
        "ag",
        "ri"
      ],
      [
        "xi",
        "x"
      ],
      [
        "don",
        "o"
      ],
      [
        "ini",
        "ci"
      ],
      [
        "estable",
        "cer"
      ],
      [
        "tran",
        "s"
      ],
      [
        "tomar",
        "on"
      ],
      [
        "importan",
        "cia"
      ],
      [
        "clas",
        "es"
      ],
      [
        "euro",
        "pa"
      ],
      [
        "comuni",
        "cacion"
      ],
      [
        "inmedia",
        "to"
      ],
      [
        "provision",
        "al"
      ],
      [
        "hac",
        "en"
      ],
      [
        "oriz",
        "aba"
      ],
      [
        "canti",
        "dad"
      ],
      [
        "armi",
        "jo"
      ],
      [
        "a",
        "fir"
      ],
      [
        "e",
        "fi"
      ],
      [
        "f",
        "lores"
      ],
      [
        "h",
        "os"
      ],
      [
        "r",
        "er"
      ],
      [
        "z",
        "ita"
      ],
      [
        "es",
        "cla"
      ],
      [
        "an",
        "terior"
      ],
      [
        "ar",
        "ri"
      ],
      [
        "ar",
        "gu"
      ],
      [
        "re",
        "conocer"
      ],
      [
        "or",
        "din"
      ],
      [
        "ent",
        "er"
      ],
      [
        "ti",
        "cos"
      ],
      [
        "ca",
        "mar"
      ],
      [
        "ro",
        "mp"
      ],
      [
        "la",
        "tin"
      ],
      [
        "vi",
        "ce"
      ],
      [
        "de",
        "jo"
      ],
      [
        "pu",
        "si"
      ],
      [
        "ma",
        "trimonio"
      ],
      [
        "ran",
        "o"
      ],
      [
        "ter",
        "ia"
      ],
      [
        "ter",
        "cer"
      ],
      [
        "pro",
        "te"
      ],
      [
        "par",
        "ro"
      ],
      [
        "ber",
        "na"
      ],
      [
        "ce",
        "der"
      ],
      [
        "cas",
        "tillo"
      ],
      [
        "ej",
        "o"
      ],
      [
        "nu",
        "mer"
      ],
      [
        "lle",
        "var"
      ],
      [
        "uni",
        "eron"
      ],
      [
        "fa",
        "cultad"
      ],
      [
        "ne",
        "gre"
      ],
      [
        "nomb",
        "ro"
      ],
      [
        "gra",
        "f"
      ],
      [
        "com",
        "un"
      ],
      [
        "pon",
        "er"
      ],
      [
        "camp",
        "esin"
      ],
      [
        "histor",
        "i"
      ],
      [
        "dipu",
        "tado"
      ],
      [
        "tis",
        "tas"
      ],
      [
        "sus",
        "pen"
      ],
      [
        "ide",
        "as"
      ],
      [
        "cabez",
        "a"
      ],
      [
        "bien",
        "es"
      ],
      [
        "of",
        "reci"
      ],
      [
        "regi",
        "miento"
      ],
      [
        "escu",
        "ela"
      ],
      [
        "euro",
        "pe"
      ],
      [
        "cir",
        "cu"
      ],
      [
        "obje",
        "tivo"
      ],
      [
        "ferro",
        "carri"
      ],
      [
        "convir",
        "tio"
      ],
      [
        "arz",
        "obispo"
      ],
      [
        "cabi",
        "ldo"
      ],
      [
        "zacate",
        "cas"
      ],
      [
        "zita",
        "cuaro"
      ],
      [
        "a",
        "qu"
      ],
      [
        "b",
        "on"
      ],
      [
        "d",
        "aba"
      ],
      [
        "e",
        "lo"
      ],
      [
        "g",
        "ados"
      ],
      [
        "h",
        "ero"
      ],
      [
        "t",
        "ador"
      ],
      [
        "es",
        "pa"
      ],
      [
        "er",
        "ador"
      ],
      [
        "en",
        "ci"
      ],
      [
        "en",
        "dose"
      ],
      [
        "ar",
        "qui"
      ],
      [
        "ad",
        "u"
      ],
      [
        "al",
        "i"
      ],
      [
        "al",
        "var"
      ],
      [
        "re",
        "de"
      ],
      [
        "in",
        "os"
      ],
      [
        "con",
        "di"
      ],
      [
        "con",
        "vento"
      ],
      [
        "do",
        "za"
      ],
      [
        "de",
        "u"
      ],
      [
        "ch",
        "ez"
      ],
      [
        "mar",
        "cha"
      ],
      [
        "qu",
        "ini"
      ],
      [
        "tar",
        "ia"
      ],
      [
        "pa",
        "pel"
      ],
      [
        "est",
        "an"
      ],
      [
        "san",
        "chez"
      ],
      [
        "cor",
        "respon"
      ],
      [
        "for",
        "t"
      ],
      [
        "for",
        "tal"
      ],
      [
        "iz",
        "quier"
      ],
      [
        "cer",
        "e"
      ],
      [
        "cre",
        "acion"
      ],
      [
        "uni",
        "rse"
      ],
      [
        "guer",
        "ri"
      ],
      [
        "mad",
        "er"
      ],
      [
        "gener",
        "ales"
      ],
      [
        "que",
        "o"
      ],
      [
        "ag",
        "r"
      ],
      [
        "emp",
        "erador"
      ],
      [
        "conoci",
        "da"
      ],
      [
        "forma",
        "cion"
      ],
      [
        "cen",
        "o"
      ],
      [
        "minis",
        "tros"
      ],
      [
        "conse",
        "guir"
      ],
      [
        "esti",
        "lo"
      ],
      [
        "compan",
        "ia"
      ],
      [
        "vis",
        "i"
      ],
      [
        "baj",
        "io"
      ],
      [
        "ofi",
        "ciales"
      ],
      [
        "ll",
        "ones"
      ],
      [
        "partici",
        "par"
      ],
      [
        "oro",
        "zco"
      ],
      [
        "estadouniden",
        "ses"
      ],
      [
        "conserv",
        "ador"
      ],
      [
        "temp",
        "lo"
      ],
      [
        "institu",
        "cion"
      ],
      [
        "renun",
        "cia"
      ],
      [
        "docu",
        "mento"
      ],
      [
        "expe",
        "dicion"
      ],
      [
        "resta",
        "u"
      ],
      [
        "propi",
        "edad"
      ],
      [
        "gol",
        "pe"
      ],
      [
        "camin",
        "o"
      ],
      [
        "peninsu",
        "lares"
      ],
      [
        "recu",
        "per"
      ],
      [
        "ye",
        "cto"
      ],
      [
        "inquis",
        "icion"
      ],
      [
        "consecu",
        "encia"
      ],
      [
        "negre",
        "te"
      ],
      [
        "d",
        "ri"
      ],
      [
        "f",
        "is"
      ],
      [
        "g",
        "er"
      ],
      [
        "n",
        "ia"
      ],
      [
        "er",
        "an"
      ],
      [
        "an",
        "dose"
      ],
      [
        "ar",
        "res"
      ],
      [
        "al",
        "o"
      ],
      [
        "di",
        "cho"
      ],
      [
        "di",
        "ego"
      ],
      [
        "to",
        "lu"
      ],
      [
        "mi",
        "llones"
      ],
      [
        "tu",
        "d"
      ],
      [
        "cu",
        "mpli"
      ],
      [
        "ex",
        "cepcion"
      ],
      [
        "ma",
        "g"
      ],
      [
        "se",
        "de"
      ],
      [
        "se",
        "par"
      ],
      [
        "mo",
        "tivo"
      ],
      [
        "ter",
        "io"
      ],
      [
        "des",
        "tin"
      ],
      [
        "des",
        "emp"
      ],
      [
        "car",
        "se"
      ],
      [
        "car",
        "cel"
      ],
      [
        "na",
        "tural"
      ],
      [
        "pa",
        "tria"
      ],
      [
        "est",
        "ru"
      ],
      [
        "san",
        "tos"
      ],
      [
        "lan",
        "zo"
      ],
      [
        "titu",
        "lo"
      ],
      [
        "nue",
        "vas"
      ],
      [
        "men",
        "ez"
      ],
      [
        "men",
        "doza"
      ],
      [
        "pen",
        "as"
      ],
      [
        "sal",
        "v"
      ],
      [
        "hi",
        "cieron"
      ],
      [
        "ban",
        "co"
      ],
      [
        "emp",
        "res"
      ],
      [
        "ren",
        "o"
      ],
      [
        "cent",
        "en"
      ],
      [
        "bu",
        "r"
      ],
      [
        "itur",
        "ri"
      ],
      [
        "agu",
        "as"
      ],
      [
        "represent",
        "antes"
      ],
      [
        "defen",
        "der"
      ],
      [
        "palafo",
        "xi"
      ],
      [
        "puest",
        "as"
      ],
      [
        "abandon",
        "o"
      ],
      [
        "organiz",
        "ar"
      ],
      [
        "convo",
        "co"
      ],
      [
        "pequ",
        "eno"
      ],
      [
        "ase",
        "gu"
      ],
      [
        "ji",
        "menez"
      ],
      [
        "cola",
        "bor"
      ],
      [
        "provinci",
        "as"
      ],
      [
        "rosa",
        "ins"
      ],
      [
        "angel",
        "es"
      ],
      [
        "pie",
        "dra"
      ],
      [
        "interes",
        "es"
      ],
      [
        "rafa",
        "el"
      ],
      [
        "noti",
        "cias"
      ],
      [
        "condi",
        "ciones"
      ],
      [
        "quini",
        "entos"
      ],
      [
        "cere",
        "mon"
      ],
      [
        "tolu",
        "ca"
      ],
      [
        "a",
        "pli"
      ],
      [
        "b",
        "ri"
      ],
      [
        "e",
        "fec"
      ],
      [
        "g",
        "or"
      ],
      [
        "g",
        "acion"
      ],
      [
        "n",
        "ino"
      ],
      [
        "o",
        "cur"
      ],
      [
        "o",
        "dono"
      ],
      [
        "en",
        "contr"
      ],
      [
        "an",
        "to"
      ],
      [
        "an",
        "dez"
      ],
      [
        "ar",
        "tes"
      ],
      [
        "al",
        "rede"
      ],
      [
        "re",
        "ma"
      ],
      [
        "re",
        "ales"
      ],
      [
        "or",
        "tiz"
      ],
      [
        "in",
        "cre"
      ],
      [
        "ent",
        "u"
      ],
      [
        "ent",
        "aron"
      ],
      [
        "ti",
        "vas"
      ],
      [
        "co",
        "mon"
      ],
      [
        "li",
        "ce"
      ],
      [
        "con",
        "cha"
      ],
      [
        "con",
        "vencion"
      ],
      [
        "ri",
        "d"
      ],
      [
        "ri",
        "ano"
      ],
      [
        "mi",
        "r"
      ],
      [
        "go",
        "ber"
      ],
      [
        "ex",
        "isti"
      ],
      [
        "ma",
        "za"
      ],
      [
        "se",
        "cu"
      ],
      [
        "se",
        "man"
      ],
      [
        "ju",
        "di"
      ],
      [
        "ab",
        "solu"
      ],
      [
        "ran",
        "do"
      ],
      [
        "si",
        "ti"
      ],
      [
        "so",
        "ciales"
      ],
      [
        "par",
        "tes"
      ],
      [
        "per",
        "ten"
      ],
      [
        "tra",
        "ta"
      ],
      [
        "san",
        "do"
      ],
      [
        "san",
        "tia"
      ],
      [
        "gar",
        "ay"
      ],
      [
        "hu",
        "ir"
      ],
      [
        "can",
        "on"
      ],
      [
        "cal",
        "les"
      ],
      [
        "gi",
        "ca"
      ],
      [
        "uni",
        "co"
      ],
      [
        "pre",
        "ten"
      ],
      [
        "mad",
        "rid"
      ],
      [
        "log",
        "rar"
      ],
      [
        "posi",
        "ble"
      ],
      [
        "posi",
        "bilidad"
      ],
      [
        "fun",
        "da"
      ],
      [
        "camp",
        "anas"
      ],
      [
        "tiva",
        "mente"
      ],
      [
        "person",
        "al"
      ],
      [
        "haci",
        "endas"
      ],
      [
        "represent",
        "acion"
      ],
      [
        "cap",
        "tura"
      ],
      [
        "encar",
        "go"
      ],
      [
        "procla",
        "mo"
      ],
      [
        "mati",
        "co"
      ],
      [
        "im",
        "pul"
      ],
      [
        "estu",
        "dios"
      ],
      [
        "declar",
        "o"
      ],
      [
        "segui",
        "r"
      ],
      [
        "soli",
        "cito"
      ],
      [
        "respon",
        "sab"
      ],
      [
        "fal",
        "le"
      ],
      [
        "eta",
        "pa"
      ],
      [
        "red",
        "ac"
      ],
      [
        "capitu",
        "lo"
      ],
      [
        "republi",
        "cano"
      ],
      [
        "cau",
        "di"
      ],
      [
        "and",
        "res"
      ],
      [
        "blan",
        "co"
      ],
      [
        "cuesti",
        "on"
      ],
      [
        "embaj",
        "ador"
      ],
      [
        "garanti",
        "as"
      ],
      [
        "catoli",
        "ca"
      ],
      [
        "munici",
        "pio"
      ],
      [
        "later",
        "ales"
      ],
      [
        "column",
        "as"
      ],
      [
        "edifi",
        "cio"
      ],
      [
        "yuca",
        "tan"
      ],
      [
        "semin",
        "ario"
      ],
      [
        "monu",
        "mento"
      ],
      [
        "pusi",
        "eron"
      ],
      [
        "campesin",
        "os"
      ],
      [
        "estru",
        "c"
      ],
      [
        "iturri",
        "garay"
      ],
      [
        "odono",
        "ju"
      ],
      [
        "comon",
        "fort"
      ],
      [
        "santia",
        "go"
      ],
      [
        "1",
        "7"
      ],
      [
        "a",
        "men"
      ],
      [
        "a",
        "vier"
      ],
      [
        "a",
        "penas"
      ],
      [
        "h",
        "ora"
      ],
      [
        "l",
        "al"
      ],
      [
        "l",
        "pan"
      ],
      [
        "r",
        "adi"
      ],
      [
        "s",
        "as"
      ],
      [
        "s",
        "to"
      ],
      [
        "s",
        "tas"
      ],
      [
        "x",
        "avier"
      ],
      [
        "ar",
        "chi"
      ],
      [
        "ar",
        "mado"
      ],
      [
        "ci",
        "enti"
      ],
      [
        "al",
        "is"
      ],
      [
        "re",
        "fer"
      ],
      [
        "re",
        "ina"
      ],
      [
        "ti",
        "cas"
      ],
      [
        "di",
        "dos"
      ],
      [
        "di",
        "plo"
      ],
      [
        "ca",
        "ci"
      ],
      [
        "ca",
        "yo"
      ],
      [
        "li",
        "man"
      ],
      [
        "ta",
        "mientos"
      ],
      [
        "to",
        "ma"
      ],
      [
        "to",
        "ur"
      ],
      [
        "con",
        "den"
      ],
      [
        "con",
        "du"
      ],
      [
        "do",
        "ctor"
      ],
      [
        "la",
        "ba"
      ],
      [
        "te",
        "z"
      ],
      [
        "vi",
        "vi"
      ],
      [
        "de",
        "di"
      ],
      [
        "tu",
        "x"
      ],
      [
        "cu",
        "ad"
      ],
      [
        "po",
        "mu"
      ],
      [
        "ex",
        "pres"
      ],
      [
        "ch",
        "ia"
      ],
      [
        "ac",
        "ceso"
      ],
      [
        "si",
        "mp"
      ],
      [
        "des",
        "cri"
      ],
      [
        "pro",
        "fes"
      ],
      [
        "pro",
        "yecto"
      ],
      [
        "car",
        "lo"
      ],
      [
        "car",
        "men"
      ],
      [
        "na",
        "ve"
      ],
      [
        "pa",
        "pa"
      ],
      [
        "pa",
        "tz"
      ],
      [
        "pe",
        "li"
      ],
      [
        "cons",
        "ag"
      ],
      [
        "cor",
        "n"
      ],
      [
        "ver",
        "dad"
      ],
      [
        "cono",
        "cia"
      ],
      [
        "nue",
        "vos"
      ],
      [
        "men",
        "cion"
      ],
      [
        "cre",
        "o"
      ],
      [
        "dis",
        "tin"
      ],
      [
        "pueb",
        "los"
      ],
      [
        "ban",
        "der"
      ],
      [
        "ne",
        "pomu"
      ],
      [
        "comp",
        "le"
      ],
      [
        "plan",
        "e"
      ],
      [
        "homb",
        "re"
      ],
      [
        "princip",
        "io"
      ],
      [
        "feder",
        "acion"
      ],
      [
        "medi",
        "das"
      ],
      [
        "ment",
        "al"
      ],
      [
        "contin",
        "gente"
      ],
      [
        "pin",
        "turas"
      ],
      [
        "produ",
        "ccion"
      ],
      [
        "imper",
        "ial"
      ],
      [
        "antigu",
        "a"
      ],
      [
        "ori",
        "ente"
      ],
      [
        "ori",
        "gen"
      ],
      [
        "envi",
        "ado"
      ],
      [
        "inte",
        "g"
      ],
      [
        "virrein",
        "al"
      ],
      [
        "extranj",
        "era"
      ],
      [
        "soli",
        "ci"
      ],
      [
        "continu",
        "o"
      ],
      [
        "cele",
        "br"
      ],
      [
        "encuent",
        "ra"
      ],
      [
        "lib",
        "ros"
      ],
      [
        "consu",
        "l"
      ],
      [
        "provo",
        "co"
      ],
      [
        "estra",
        "te"
      ],
      [
        "abo",
        "li"
      ],
      [
        "ima",
        "gen"
      ],
      [
        "instru",
        "ccion"
      ],
      [
        "recibi",
        "r"
      ],
      [
        "cristo",
        "bal"
      ],
      [
        "maest",
        "ro"
      ],
      [
        "metro",
        "poli"
      ],
      [
        "asun",
        "tos"
      ],
      [
        "ilu",
        "s"
      ],
      [
        "prac",
        "tica"
      ],
      [
        "espa",
        "cio"
      ],
      [
        "palafoxi",
        "ana"
      ],
      [
        "alrede",
        "dor"
      ],
      [
        "liman",
        "tour"
      ],
      [
        "nepomu",
        "ceno"
      ],
      [
        "d",
        "aron"
      ],
      [
        "e",
        "ci"
      ],
      [
        "g",
        "ano"
      ],
      [
        "h",
        "al"
      ],
      [
        "j",
        "eron"
      ],
      [
        "o",
        "campo"
      ],
      [
        "r",
        "in"
      ],
      [
        "s",
        "tante"
      ],
      [
        "t",
        "res"
      ],
      [
        "u",
        "so"
      ],
      [
        "an",
        "u"
      ],
      [
        "al",
        "tura"
      ],
      [
        "ti",
        "fi"
      ],
      [
        "li",
        "an"
      ],
      [
        "li",
        "bre"
      ],
      [
        "con",
        "fi"
      ],
      [
        "ra",
        "mos"
      ],
      [
        "le",
        "gi"
      ],
      [
        "mi",
        "ramon"
      ],
      [
        "de",
        "j"
      ],
      [
        "de",
        "l"
      ],
      [
        "de",
        "mo"
      ],
      [
        "gu",
        "ate"
      ],
      [
        "gu",
        "berna"
      ],
      [
        "ju",
        "ana"
      ],
      [
        "ju",
        "lian"
      ],
      [
        "ab",
        "aso"
      ],
      [
        "ac",
        "or"
      ],
      [
        "mar",
        "cos"
      ],
      [
        "mar",
        "ina"
      ],
      [
        "dad",
        "as"
      ],
      [
        "pro",
        "ble"
      ],
      [
        "pro",
        "puesta"
      ],
      [
        "car",
        "gos"
      ],
      [
        "na",
        "var"
      ],
      [
        "par",
        "is"
      ],
      [
        "ru",
        "iz"
      ],
      [
        "ru",
        "bio"
      ],
      [
        "est",
        "as"
      ],
      [
        "tor",
        "ia"
      ],
      [
        "tra",
        "tados"
      ],
      [
        "tra",
        "icion"
      ],
      [
        "ce",
        "di"
      ],
      [
        "ob",
        "stante"
      ],
      [
        "ej",
        "emp"
      ],
      [
        "can",
        "ones"
      ],
      [
        "pos",
        "tu"
      ],
      [
        "lan",
        "os"
      ],
      [
        "fa",
        "vo"
      ],
      [
        "hi",
        "ja"
      ],
      [
        "esta",
        "bilidad"
      ],
      [
        "mad",
        "as"
      ],
      [
        "ele",
        "gido"
      ],
      [
        "espano",
        "las"
      ],
      [
        "ler",
        "ia"
      ],
      [
        "nomb",
        "ra"
      ],
      [
        "derro",
        "to"
      ],
      [
        "bern",
        "ardo"
      ],
      [
        "nor",
        "ia"
      ],
      [
        "adi",
        "cion"
      ],
      [
        "tla",
        "x"
      ],
      [
        "termin",
        "ar"
      ],
      [
        "ulti",
        "mos"
      ],
      [
        "procla",
        "ma"
      ],
      [
        "autor",
        "idad"
      ],
      [
        "levan",
        "tamiento"
      ],
      [
        "tier",
        "ras"
      ],
      [
        "ocu",
        "par"
      ],
      [
        "18",
        "1"
      ],
      [
        "inte",
        "gran"
      ],
      [
        "cali",
        "entes"
      ],
      [
        "territor",
        "ios"
      ],
      [
        "extranj",
        "eros"
      ],
      [
        "rebeli",
        "ones"
      ],
      [
        "mani",
        "f"
      ],
      [
        "recha",
        "zo"
      ],
      [
        "pren",
        "sa"
      ],
      [
        "resul",
        "tado"
      ],
      [
        "ocasion",
        "o"
      ],
      [
        "acompan",
        "ado"
      ],
      [
        "sacerdo",
        "te"
      ],
      [
        "retra",
        "to"
      ],
      [
        "trigar",
        "ante"
      ],
      [
        "porfir",
        "ista"
      ],
      [
        "sola",
        "mente"
      ],
      [
        "legisla",
        "tivo"
      ],
      [
        "vuel",
        "ta"
      ],
      [
        "bille",
        "te"
      ],
      [
        "civi",
        "les"
      ],
      [
        "cela",
        "ya"
      ],
      [
        "facultad",
        "es"
      ],
      [
        "centen",
        "ario"
      ],
      [
        "lice",
        "aga"
      ],
      [
        "judi",
        "cial"
      ],
      [
        "estruc",
        "tura"
      ],
      [
        "carlo",
        "ta"
      ],
      [
        "abaso",
        "lo"
      ],
      [
        "a",
        "t"
      ],
      [
        "b",
        "asi"
      ],
      [
        "e",
        "t"
      ],
      [
        "e",
        "cer"
      ],
      [
        "f",
        "abri"
      ],
      [
        "g",
        "aron"
      ],
      [
        "g",
        "aba"
      ],
      [
        "s",
        "ac"
      ],
      [
        "t",
        "ana"
      ],
      [
        "u",
        "car"
      ],
      [
        "w",
        "il"
      ],
      [
        "x",
        "vii"
      ],
      [
        "y",
        "er"
      ],
      [
        "en",
        "fer"
      ],
      [
        "ar",
        "te"
      ],
      [
        "ci",
        "mientos"
      ],
      [
        "in",
        "min"
      ],
      [
        "in",
        "for"
      ],
      [
        "in",
        "corpor"
      ],
      [
        "di",
        "ce"
      ],
      [
        "di",
        "ga"
      ],
      [
        "co",
        "l"
      ],
      [
        "ca",
        "ida"
      ],
      [
        "ta",
        "gon"
      ],
      [
        "to",
        "mas"
      ],
      [
        "is",
        "a"
      ],
      [
        "is",
        "t"
      ],
      [
        "con",
        "dicion"
      ],
      [
        "le",
        "ctu"
      ],
      [
        "ado",
        "p"
      ],
      [
        "un",
        "a"
      ],
      [
        "un",
        "cio"
      ],
      [
        "res",
        "pec"
      ],
      [
        "res",
        "istencia"
      ],
      [
        "gu",
        "tier"
      ],
      [
        "mb",
        "re"
      ],
      [
        "no",
        "vel"
      ],
      [
        "ab",
        "i"
      ],
      [
        "su",
        "b"
      ],
      [
        "su",
        "ble"
      ],
      [
        "si",
        "r"
      ],
      [
        "des",
        "a"
      ],
      [
        "des",
        "po"
      ],
      [
        "so",
        "le"
      ],
      [
        "min",
        "u"
      ],
      [
        "tas",
        "io"
      ],
      [
        "gar",
        "se"
      ],
      [
        "ce",
        "d"
      ],
      [
        "for",
        "nia"
      ],
      [
        "ces",
        "ion"
      ],
      [
        "ciudad",
        "anos"
      ],
      [
        "men",
        "os"
      ],
      [
        "mon",
        "ter"
      ],
      [
        "uni",
        "do"
      ],
      [
        "uni",
        "vers"
      ],
      [
        "au",
        "gu"
      ],
      [
        "gui",
        "ller"
      ],
      [
        "dis",
        "tas"
      ],
      [
        "mad",
        "re"
      ],
      [
        "ele",
        "ctor"
      ],
      [
        "ton",
        "o"
      ],
      [
        "chi",
        "lpan"
      ],
      [
        "revolucion",
        "arias"
      ],
      [
        "plan",
        "es"
      ],
      [
        "val",
        "le"
      ],
      [
        "indepen",
        "diente"
      ],
      [
        "derro",
        "tas"
      ],
      [
        "minis",
        "terio"
      ],
      [
        "mor",
        "i"
      ],
      [
        "lleg",
        "ado"
      ],
      [
        "sigui",
        "eron"
      ],
      [
        "medi",
        "da"
      ],
      [
        "leon",
        "ardo"
      ],
      [
        "fern",
        "andez"
      ],
      [
        "bas",
        "e"
      ],
      [
        "sen",
        "al"
      ],
      [
        "procla",
        "mado"
      ],
      [
        "domin",
        "go"
      ],
      [
        "domin",
        "guez"
      ],
      [
        "ll",
        "ano"
      ],
      [
        "beni",
        "tez"
      ],
      [
        "comer",
        "ci"
      ],
      [
        "inte",
        "lectu"
      ],
      [
        "cali",
        "fornia"
      ],
      [
        "mej",
        "ia"
      ],
      [
        "segu",
        "idores"
      ],
      [
        "apro",
        "xi"
      ],
      [
        "reuni",
        "rse"
      ],
      [
        "acep",
        "to"
      ],
      [
        "enfr",
        "enta"
      ],
      [
        "martin",
        "ez"
      ],
      [
        "aus",
        "encia"
      ],
      [
        "invas",
        "ion"
      ],
      [
        "evi",
        "tar"
      ],
      [
        "influ",
        "encia"
      ],
      [
        "actividad",
        "es"
      ],
      [
        "hacen",
        "dados"
      ],
      [
        "camar",
        "a"
      ],
      [
        "aguas",
        "calientes"
      ],
      [
        "gutier",
        "rez"
      ],
      [
        "guiller",
        "mo"
      ],
      [
        "chilpan",
        "cingo"
      ],
      [
        "0",
        "0"
      ],
      [
        "c",
        "lar"
      ],
      [
        "c",
        "adas"
      ],
      [
        "e",
        "gi"
      ],
      [
        "f",
        "ac"
      ],
      [
        "g",
        "ando"
      ],
      [
        "g",
        "reg"
      ],
      [
        "i",
        "cas"
      ],
      [
        "o",
        "c"
      ],
      [
        "o",
        "posicion"
      ],
      [
        "r",
        "eros"
      ],
      [
        "z",
        "ada"
      ],
      [
        "es",
        "to"
      ],
      [
        "ar",
        "o"
      ],
      [
        "ci",
        "ta"
      ],
      [
        "ci",
        "ado"
      ],
      [
        "ci",
        "endo"
      ],
      [
        "ci",
        "dos"
      ],
      [
        "os",
        "or"
      ],
      [
        "al",
        "can"
      ],
      [
        "al",
        "hon"
      ],
      [
        "re",
        "gu"
      ],
      [
        "re",
        "cor"
      ],
      [
        "re",
        "quer"
      ],
      [
        "re",
        "unio"
      ],
      [
        "ent",
        "rada"
      ],
      [
        "ti",
        "r"
      ],
      [
        "ti",
        "en"
      ],
      [
        "ti",
        "lla"
      ],
      [
        "ca",
        "mbi"
      ],
      [
        "ro",
        "de"
      ],
      [
        "la",
        "ciones"
      ],
      [
        "de",
        "jar"
      ],
      [
        "res",
        "pal"
      ],
      [
        "cu",
        "anto"
      ],
      [
        "ex",
        "pli"
      ],
      [
        "ex",
        "teriores"
      ],
      [
        "lo",
        "gran"
      ],
      [
        "ma",
        "teri"
      ],
      [
        "se",
        "cun"
      ],
      [
        "mo",
        "do"
      ],
      [
        "ch",
        "aron"
      ],
      [
        "ab",
        "ra"
      ],
      [
        "mar",
        "cho"
      ],
      [
        "si",
        "va"
      ],
      [
        "ter",
        "na"
      ],
      [
        "exi",
        "to"
      ],
      [
        "exi",
        "lio"
      ],
      [
        "ru",
        "gada"
      ],
      [
        "tra",
        "tado"
      ],
      [
        "me",
        "dal"
      ],
      [
        "min",
        "eria"
      ],
      [
        "cor",
        "a"
      ],
      [
        "fe",
        "cha"
      ],
      [
        "ver",
        "du"
      ],
      [
        "pos",
        "e"
      ],
      [
        "pos",
        "tura"
      ],
      [
        "pr",
        "os"
      ],
      [
        "cre",
        "ar"
      ],
      [
        "au",
        "tono"
      ],
      [
        "tri",
        "to"
      ],
      [
        "dis",
        "trito"
      ],
      [
        "mad",
        "rugada"
      ],
      [
        "reci",
        "b"
      ],
      [
        "yor",
        "k"
      ],
      [
        "ameri",
        "cana"
      ],
      [
        "frances",
        "as"
      ],
      [
        "ctor",
        "es"
      ],
      [
        "ay",
        "ala"
      ],
      [
        "be",
        "do"
      ],
      [
        "princip",
        "almente"
      ],
      [
        "lleg",
        "ada"
      ],
      [
        "sigui",
        "entes"
      ],
      [
        "ata",
        "car"
      ],
      [
        "puer",
        "ta"
      ],
      [
        "igles",
        "ias"
      ],
      [
        "vis",
        "to"
      ],
      [
        "bo",
        "ve"
      ],
      [
        "dirig",
        "ida"
      ],
      [
        "mati",
        "ca"
      ],
      [
        "ni",
        "vel"
      ],
      [
        "pin",
        "tor"
      ],
      [
        "ejecu",
        "cion"
      ],
      [
        "victor",
        "iano"
      ],
      [
        "vol",
        "ver"
      ],
      [
        "ep",
        "is"
      ],
      [
        "consider",
        "ado"
      ],
      [
        "ses",
        "iones"
      ],
      [
        "obli",
        "gado"
      ],
      [
        "ocas",
        "iones"
      ],
      [
        "inten",
        "dencia"
      ],
      [
        "abandon",
        "ar"
      ],
      [
        "anas",
        "tasio"
      ],
      [
        "camb",
        "ios"
      ],
      [
        "encuent",
        "ran"
      ],
      [
        "conspi",
        "r"
      ],
      [
        "novohisp",
        "anos"
      ],
      [
        "trabaj",
        "adores"
      ],
      [
        "candida",
        "to"
      ],
      [
        "invas",
        "ores"
      ],
      [
        "unica",
        "mente"
      ],
      [
        "trigar",
        "antes"
      ],
      [
        "religios",
        "as"
      ],
      [
        "defin",
        "i"
      ],
      [
        "tehu",
        "acan"
      ],
      [
        "extra",
        "ordin"
      ],
      [
        "retab",
        "lo"
      ],
      [
        "vice",
        "presidente"
      ],
      [
        "graf",
        "ia"
      ],
      [
        "tux",
        "tepec"
      ],
      [
        "simp",
        "ati"
      ],
      [
        "inmin",
        "ente"
      ],
      [
        "alhon",
        "diga"
      ],
      [
        "verdu",
        "zco"
      ],
      [
        "a",
        "ten"
      ],
      [
        "a",
        "fec"
      ],
      [
        "e",
        "v"
      ],
      [
        "e",
        "va"
      ],
      [
        "e",
        "fe"
      ],
      [
        "e",
        "miliano"
      ],
      [
        "g",
        "r"
      ],
      [
        "g",
        "ion"
      ],
      [
        "i",
        "ente"
      ],
      [
        "i",
        "lla"
      ],
      [
        "j",
        "ero"
      ],
      [
        "p",
        "le"
      ],
      [
        "p",
        "acto"
      ],
      [
        "u",
        "ra"
      ],
      [
        "es",
        "a"
      ],
      [
        "es",
        "pi"
      ],
      [
        "er",
        "te"
      ],
      [
        "ad",
        "ir"
      ],
      [
        "al",
        "tos"
      ],
      [
        "as",
        "es"
      ],
      [
        "re",
        "clu"
      ],
      [
        "in",
        "v"
      ],
      [
        "in",
        "augu"
      ],
      [
        "ent",
        "ar"
      ],
      [
        "ca",
        "tal"
      ],
      [
        "li",
        "mi"
      ],
      [
        "li",
        "ter"
      ],
      [
        "ta",
        "mp"
      ],
      [
        "ta",
        "cuba"
      ],
      [
        "con",
        "ta"
      ],
      [
        "con",
        "te"
      ],
      [
        "con",
        "fron"
      ],
      [
        "ro",
        "dri"
      ],
      [
        "ri",
        "di"
      ],
      [
        "la",
        "miento"
      ],
      [
        "mi",
        "x"
      ],
      [
        "mi",
        "tad"
      ],
      [
        "de",
        "tener"
      ],
      [
        "res",
        "guar"
      ],
      [
        "cu",
        "pu"
      ],
      [
        "ex",
        "per"
      ],
      [
        "ex",
        "pul"
      ],
      [
        "lo",
        "calidad"
      ],
      [
        "ma",
        "y"
      ],
      [
        "ma",
        "gon"
      ],
      [
        "mo",
        "der"
      ],
      [
        "man",
        "tuvo"
      ],
      [
        "man",
        "tener"
      ],
      [
        "su",
        "f"
      ],
      [
        "su",
        "erte"
      ],
      [
        "bi",
        "li"
      ],
      [
        "des",
        "cubier"
      ],
      [
        "pro",
        "mo"
      ],
      [
        "pro",
        "posi"
      ],
      [
        "pro",
        "pon"
      ],
      [
        "tar",
        "a"
      ],
      [
        "fi",
        "cos"
      ],
      [
        "per",
        "don"
      ],
      [
        "est",
        "ino"
      ],
      [
        "ba",
        "u"
      ],
      [
        "ten",
        "cias"
      ],
      [
        "me",
        "ti"
      ],
      [
        "cor",
        "ral"
      ],
      [
        "ob",
        "reros"
      ],
      [
        "ej",
        "a"
      ],
      [
        "cono",
        "ce"
      ],
      [
        "men",
        "egi"
      ],
      [
        "jun",
        "tas"
      ],
      [
        "tr",
        "in"
      ],
      [
        "pas",
        "ar"
      ],
      [
        "tur",
        "ales"
      ],
      [
        "publi",
        "cos"
      ],
      [
        "politi",
        "cas"
      ],
      [
        "her",
        "menegi"
      ],
      [
        "comp",
        "e"
      ],
      [
        "revolucion",
        "ario"
      ],
      [
        "cul",
        "to"
      ],
      [
        "ve",
        "ces"
      ],
      [
        "posi",
        "ti"
      ],
      [
        "batal",
        "las"
      ],
      [
        "batal",
        "lon"
      ],
      [
        "mor",
        "eno"
      ],
      [
        "isti",
        "eron"
      ],
      [
        "adi",
        "lla"
      ],
      [
        "leg",
        "al"
      ],
      [
        "gobern",
        "adores"
      ],
      [
        "medi",
        "ados"
      ],
      [
        "dere",
        "cha"
      ],
      [
        "haci",
        "endo"
      ],
      [
        "he",
        "chos"
      ],
      [
        "ment",
        "ando"
      ],
      [
        "perio",
        "dico"
      ],
      [
        "cel",
        "estino"
      ],
      [
        "ene",
        "mi"
      ],
      [
        "coman",
        "dadas"
      ],
      [
        "reli",
        "gion"
      ],
      [
        "carran",
        "cis"
      ],
      [
        "ide",
        "o"
      ],
      [
        "partici",
        "pacion"
      ],
      [
        "envi",
        "ados"
      ],
      [
        "ses",
        "ion"
      ],
      [
        "reti",
        "rada"
      ],
      [
        "inten",
        "dente"
      ],
      [
        "actu",
        "almente"
      ],
      [
        "zapa",
        "tistas"
      ],
      [
        "nego",
        "cia"
      ],
      [
        "esco",
        "bedo"
      ],
      [
        "final",
        "idad"
      ],
      [
        "ller",
        "ia"
      ],
      [
        "docu",
        "mentos"
      ],
      [
        "funcion",
        "arios"
      ],
      [
        "asesin",
        "ado"
      ],
      [
        "dire",
        "ccion"
      ],
      [
        "permane",
        "cio"
      ],
      [
        "colon",
        "ias"
      ],
      [
        "ami",
        "go"
      ],
      [
        "indus",
        "tri"
      ],
      [
        "tron",
        "o"
      ],
      [
        "design",
        "ado"
      ],
      [
        "independent",
        "ista"
      ],
      [
        "regres",
        "ar"
      ],
      [
        "mujer",
        "es"
      ],
      [
        "salv",
        "ador"
      ],
      [
        "efec",
        "tivos"
      ],
      [
        "corn",
        "isa"
      ],
      [
        "aboli",
        "cion"
      ],
      [
        "legi",
        "ti"
      ],
      [
        "guate",
        "mala"
      ],
      [
        "monter",
        "rey"
      ],
      [
        "univers",
        "idad"
      ],
      [
        "osor",
        "no"
      ],
      [
        "tien",
        "en"
      ],
      [
        "logran",
        "do"
      ],
      [
        "tamp",
        "ico"
      ],
      [
        "hermenegi",
        "ldo"
      ],
      [
        "a",
        "mbi"
      ],
      [
        "a",
        "conte"
      ],
      [
        "e",
        "qui"
      ],
      [
        "g",
        "rado"
      ],
      [
        "j",
        "or"
      ],
      [
        "m",
        "ision"
      ],
      [
        "m",
        "isti"
      ],
      [
        "n",
        "es"
      ],
      [
        "p",
        "lu"
      ],
      [
        "p",
        "adilla"
      ],
      [
        "s",
        "in"
      ],
      [
        "t",
        "ento"
      ],
      [
        "v",
        "on"
      ],
      [
        "x",
        "to"
      ],
      [
        "x",
        "ala"
      ],
      [
        "z",
        "u"
      ],
      [
        "z",
        "aba"
      ],
      [
        "es",
        "o"
      ],
      [
        "es",
        "te"
      ],
      [
        "es",
        "ion"
      ],
      [
        "en",
        "as"
      ],
      [
        "en",
        "se"
      ],
      [
        "an",
        "s"
      ],
      [
        "ar",
        "ma"
      ],
      [
        "ci",
        "ria"
      ],
      [
        "re",
        "tro"
      ],
      [
        "re",
        "fu"
      ],
      [
        "re",
        "don"
      ],
      [
        "re",
        "conocio"
      ],
      [
        "re",
        "fuerzos"
      ],
      [
        "or",
        "gano"
      ],
      [
        "di",
        "fi"
      ],
      [
        "co",
        "leg"
      ],
      [
        "li",
        "a"
      ],
      [
        "li",
        "stas"
      ],
      [
        "is",
        "tio"
      ],
      [
        "con",
        "junto"
      ],
      [
        "con",
        "taban"
      ],
      [
        "vi",
        "va"
      ],
      [
        "de",
        "man"
      ],
      [
        "ex",
        "terior"
      ],
      [
        "pu",
        "ente"
      ],
      [
        "se",
        "villa"
      ],
      [
        "su",
        "el"
      ],
      [
        "lu",
        "z"
      ],
      [
        "des",
        "titu"
      ],
      [
        "des",
        "embar"
      ],
      [
        "qu",
        "ista"
      ],
      [
        "pro",
        "por"
      ],
      [
        "pro",
        "gra"
      ],
      [
        "pro",
        "pio"
      ],
      [
        "pro",
        "puestas"
      ],
      [
        "car",
        "tas"
      ],
      [
        "na",
        "va"
      ],
      [
        "na",
        "ciones"
      ],
      [
        "na",
        "cimiento"
      ],
      [
        "pa",
        "von"
      ],
      [
        "pe",
        "ti"
      ],
      [
        "pres",
        "o"
      ],
      [
        "ba",
        "y"
      ],
      [
        "za",
        "cion"
      ],
      [
        "tra",
        "to"
      ],
      [
        "mu",
        "rieron"
      ],
      [
        "gi",
        "eron"
      ],
      [
        "insur",
        "re"
      ],
      [
        "pen",
        "s"
      ],
      [
        "gobier",
        "nos"
      ],
      [
        "uni",
        "ver"
      ],
      [
        "ejer",
        "cer"
      ],
      [
        "nacion",
        "ales"
      ],
      [
        "sal",
        "i"
      ],
      [
        "dis",
        "cu"
      ],
      [
        "inter",
        "ino"
      ],
      [
        "constitu",
        "y"
      ],
      [
        "her",
        "mos"
      ],
      [
        "parti",
        "o"
      ],
      [
        "parti",
        "cu"
      ],
      [
        "posi",
        "ciones"
      ],
      [
        "derro",
        "tar"
      ],
      [
        "cen",
        "a"
      ],
      [
        "gra",
        "ve"
      ],
      [
        "pes",
        "o"
      ],
      [
        "acer",
        "ca"
      ],
      [
        "oax",
        "aqu"
      ],
      [
        "int",
        "entos"
      ],
      [
        "herman",
        "a"
      ],
      [
        "tis",
        "mo"
      ],
      [
        "im",
        "puestos"
      ],
      [
        "cuar",
        "tel"
      ],
      [
        "entre",
        "vista"
      ],
      [
        "comer",
        "cial"
      ],
      [
        "produ",
        "jo"
      ],
      [
        "edi",
        "cto"
      ],
      [
        "reti",
        "ro"
      ],
      [
        "extranj",
        "eras"
      ],
      [
        "pun",
        "tos"
      ],
      [
        "tex",
        "to"
      ],
      [
        "fal",
        "ta"
      ],
      [
        "institu",
        "to"
      ],
      [
        "mani",
        "fi"
      ],
      [
        "fusi",
        "lado"
      ],
      [
        "apoy",
        "ar"
      ],
      [
        "fron",
        "tera"
      ],
      [
        "dese",
        "aba"
      ],
      [
        "cuesti",
        "ones"
      ],
      [
        "eclesias",
        "ticos"
      ],
      [
        "dire",
        "c"
      ],
      [
        "monar",
        "quia"
      ],
      [
        "encabez",
        "ado"
      ],
      [
        "ami",
        "gos"
      ],
      [
        "indus",
        "tria"
      ],
      [
        "ascen",
        "cio"
      ],
      [
        "ofre",
        "cio"
      ],
      [
        "rami",
        "rez"
      ],
      [
        "europe",
        "os"
      ],
      [
        "agr",
        "ario"
      ],
      [
        "bander",
        "a"
      ],
      [
        "tres",
        "cientos"
      ],
      [
        "manif",
        "esta"
      ],
      [
        "abi",
        "er"
      ],
      [
        "rodri",
        "guez"
      ],
      [
        "xala",
        "pa"
      ],
      [
        "coleg",
        "io"
      ],
      [
        "propor",
        "cion"
      ],
      [
        "a",
        "hora"
      ],
      [
        "b",
        "les"
      ],
      [
        "d",
        "ario"
      ],
      [
        "e",
        "to"
      ],
      [
        "e",
        "pi"
      ],
      [
        "h",
        "n"
      ],
      [
        "h",
        "ing"
      ],
      [
        "i",
        "po"
      ],
      [
        "i",
        "va"
      ],
      [
        "i",
        "cos"
      ],
      [
        "j",
        "au"
      ],
      [
        "n",
        "ar"
      ],
      [
        "o",
        "cho"
      ],
      [
        "p",
        "ia"
      ],
      [
        "p",
        "ino"
      ],
      [
        "r",
        "arse"
      ],
      [
        "z",
        "ando"
      ],
      [
        "es",
        "cultura"
      ],
      [
        "en",
        "sen"
      ],
      [
        "an",
        "cia"
      ],
      [
        "ar",
        "es"
      ],
      [
        "ar",
        "mada"
      ],
      [
        "ar",
        "misti"
      ],
      [
        "ci",
        "ente"
      ],
      [
        "ad",
        "mi"
      ],
      [
        "or",
        "le"
      ],
      [
        "in",
        "vesti"
      ],
      [
        "ent",
        "reg"
      ],
      [
        "di",
        "an"
      ],
      [
        "di",
        "al"
      ],
      [
        "di",
        "ez"
      ],
      [
        "co",
        "le"
      ],
      [
        "to",
        "mado"
      ],
      [
        "con",
        "ce"
      ],
      [
        "con",
        "memor"
      ],
      [
        "ra",
        "zon"
      ],
      [
        "ri",
        "tu"
      ],
      [
        "la",
        "bor"
      ],
      [
        "mi",
        "dad"
      ],
      [
        "de",
        "cia"
      ],
      [
        "res",
        "id"
      ],
      [
        "res",
        "puesta"
      ],
      [
        "cu",
        "b"
      ],
      [
        "gu",
        "sta"
      ],
      [
        "ex",
        "clu"
      ],
      [
        "ex",
        "plo"
      ],
      [
        "lo",
        "cal"
      ],
      [
        "se",
        "ver"
      ],
      [
        "se",
        "ctores"
      ],
      [
        "ju",
        "z"
      ],
      [
        "man",
        "tes"
      ],
      [
        "ab",
        "les"
      ],
      [
        "su",
        "pl"
      ],
      [
        "su",
        "fri"
      ],
      [
        "lu",
        "cas"
      ],
      [
        "el",
        "as"
      ],
      [
        "mar",
        "i"
      ],
      [
        "si",
        "mbo"
      ],
      [
        "des",
        "er"
      ],
      [
        "des",
        "cen"
      ],
      [
        "pro",
        "tagon"
      ],
      [
        "tar",
        "lo"
      ],
      [
        "fi",
        "li"
      ],
      [
        "fi",
        "el"
      ],
      [
        "pe",
        "dir"
      ],
      [
        "per",
        "seguido"
      ],
      [
        "pres",
        "os"
      ],
      [
        "pres",
        "bi"
      ],
      [
        "ba",
        "ja"
      ],
      [
        "za",
        "ca"
      ],
      [
        "va",
        "cion"
      ],
      [
        "esp",
        "ada"
      ],
      [
        "hu",
        "yo"
      ],
      [
        "ce",
        "p"
      ],
      [
        "iz",
        "ar"
      ],
      [
        "iz",
        "ucar"
      ],
      [
        "ob",
        "tener"
      ],
      [
        "mu",
        "ros"
      ],
      [
        "por",
        "tu"
      ],
      [
        "jo",
        "hn"
      ],
      [
        "cre",
        "cimiento"
      ],
      [
        "cha",
        "pul"
      ],
      [
        "sal",
        "tillo"
      ],
      [
        "imp",
        "idio"
      ],
      [
        "dis",
        "par"
      ],
      [
        "dis",
        "curso"
      ],
      [
        "inter",
        "n"
      ],
      [
        "inter",
        "nacional"
      ],
      [
        "inci",
        "dente"
      ],
      [
        "ne",
        "o"
      ],
      [
        "emp",
        "ren"
      ],
      [
        "reci",
        "bido"
      ],
      [
        "arti",
        "lleria"
      ],
      [
        "don",
        "a"
      ],
      [
        "cul",
        "min"
      ],
      [
        "val",
        "or"
      ],
      [
        "indi",
        "os"
      ],
      [
        "ini",
        "cial"
      ],
      [
        "sa",
        "que"
      ],
      [
        "ren",
        "dicion"
      ],
      [
        "reg",
        "is"
      ],
      [
        "reg",
        "iones"
      ],
      [
        "economi",
        "cos"
      ],
      [
        "histor",
        "ico"
      ],
      [
        "lleg",
        "ando"
      ],
      [
        "maxi",
        "mo"
      ],
      [
        "puer",
        "tas"
      ],
      [
        "realiz",
        "aron"
      ],
      [
        "muer",
        "to"
      ],
      [
        "zon",
        "as"
      ],
      [
        "mati",
        "cas"
      ],
      [
        "ejecu",
        "tado"
      ],
      [
        "levan",
        "tamientos"
      ],
      [
        "constru",
        "ir"
      ],
      [
        "ide",
        "a"
      ],
      [
        "estu",
        "di"
      ],
      [
        "eli",
        "te"
      ],
      [
        "lin",
        "ea"
      ],
      [
        "entre",
        "gar"
      ],
      [
        "virrein",
        "ales"
      ],
      [
        "obli",
        "ga"
      ],
      [
        "ur",
        "b"
      ],
      [
        "captur",
        "ar"
      ],
      [
        "prision",
        "eros"
      ],
      [
        "indigen",
        "a"
      ],
      [
        "continu",
        "ar"
      ],
      [
        "fusi",
        "lamiento"
      ],
      [
        "triun",
        "f"
      ],
      [
        "llev",
        "aron"
      ],
      [
        "acu",
        "s"
      ],
      [
        "vers",
        "ario"
      ],
      [
        "ani",
        "versario"
      ],
      [
        "origin",
        "almente"
      ],
      [
        "resta",
        "ble"
      ],
      [
        "paci",
        "ficacion"
      ],
      [
        "comi",
        "tiva"
      ],
      [
        "monar",
        "ca"
      ],
      [
        "inversion",
        "istas"
      ],
      [
        "figu",
        "ra"
      ],
      [
        "religios",
        "os"
      ],
      [
        "refor",
        "mas"
      ],
      [
        "sor",
        "pren"
      ],
      [
        "ale",
        "man"
      ],
      [
        "asu",
        "mio"
      ],
      [
        "uti",
        "li"
      ],
      [
        "concili",
        "acion"
      ],
      [
        "mone",
        "da"
      ],
      [
        "numer",
        "os"
      ],
      [
        "alvar",
        "o"
      ],
      [
        "fortal",
        "eza"
      ],
      [
        "izquier",
        "da"
      ],
      [
        "empres",
        "arios"
      ],
      [
        "ceremon",
        "ia"
      ],
      [
        "gober",
        "nacion"
      ],
      [
        "seman",
        "as"
      ],
      [
        "cienti",
        "ficos"
      ],
      [
        "chia",
        "pas"
      ],
      [
        "confi",
        "anza"
      ],
      [
        "demo",
        "cra"
      ],
      [
        "guberna",
        "tiva"
      ],
      [
        "ejemp",
        "lo"
      ],
      [
        "wil",
        "son"
      ],
      [
        "conspir",
        "adores"
      ],
      [
        "tacuba",
        "ya"
      ],
      [
        "exper",
        "i"
      ],
      [
        "proposi",
        "to"
      ],
      [
        "arma",
        "mento"
      ],
      [
        "ciria",
        "co"
      ],
      [
        "insurre",
        "ccion"
      ],
      [
        "manifi",
        "esto"
      ],
      [
        "armisti",
        "cio"
      ],
      [
        "orle",
        "ans"
      ],
      [
        "chapul",
        "tepec"
      ],
      [
        "2",
        "0"
      ],
      [
        "a",
        "qui"
      ],
      [
        "a",
        "mpli"
      ],
      [
        "a",
        "tribu"
      ],
      [
        "b",
        "ona"
      ],
      [
        "e",
        "as"
      ],
      [
        "e",
        "cha"
      ],
      [
        "e",
        "van"
      ],
      [
        "g",
        "ro"
      ],
      [
        "i",
        "cia"
      ],
      [
        "j",
        "ado"
      ],
      [
        "p",
        "ru"
      ],
      [
        "t",
        "ano"
      ],
      [
        "w",
        "as"
      ]
    ]
  }
}